const unsigned char g_gas_model[] = {
  0x20, 0x00, 0x00, 0x00, 0x54, 0x46, 0x4c, 0x33, 0x00, 0x00, 0x00, 0x00, 
  0x14, 0x00, 0x20, 0x00, 0x1c, 0x00, 0x18, 0x00, 0x14, 0x00, 0x10, 0x00, 
  0x0c, 0x00, 0x00, 0x00, 0x08, 0x00, 0x04, 0x00, 0x14, 0x00, 0x00, 0x00, 
  0x1c, 0x00, 0x00, 0x00, 0x98, 0x00, 0x00, 0x00, 0xf0, 0x00, 0x00, 0x00, 
  0x64, 0x16, 0x00, 0x00, 0x74, 0x16, 0x00, 0x00, 0xcc, 0x28, 0x00, 0x00, 
  0x03, 0x00, 0x00, 0x00, 0x01, 0x00, 0x00, 0x00, 0x10, 0x00, 0x00, 0x00, 
  0x00, 0x00, 0x0a, 0x00, 0x10, 0x00, 0x0c, 0x00, 0x08, 0x00, 0x04, 0x00, 
  0x0a, 0x00, 0x00, 0x00, 0x0c, 0x00, 0x00, 0x00, 0x1c, 0x00, 0x00, 0x00, 
  0x3c, 0x00, 0x00, 0x00, 0x0f, 0x00, 0x00, 0x00, 0x73, 0x65, 0x72, 0x76, 
  0x69, 0x6e, 0x67, 0x5f, 0x64, 0x65, 0x66, 0x61, 0x75, 0x6c, 0x74, 0x00, 
  0x01, 0x00, 0x00, 0x00, 0x04, 0x00, 0x00, 0x00, 0x90, 0xff, 0xff, 0xff, 
  0x09, 0x00, 0x00, 0x00, 0x04, 0x00, 0x00, 0x00, 0x08, 0x00, 0x00, 0x00, 
  0x6f, 0x75, 0x74, 0x70, 0x75, 0x74, 0x5f, 0x30, 0x00, 0x00, 0x00, 0x00, 
  0x01, 0x00, 0x00, 0x00, 0x04, 0x00, 0x00, 0x00, 0x3e, 0xea, 0xff, 0xff, 
  0x04, 0x00, 0x00, 0x00, 0x0f, 0x00, 0x00, 0x00, 0x6b, 0x65, 0x72, 0x61, 
  0x73, 0x5f, 0x74, 0x65, 0x6e, 0x73, 0x6f, 0x72, 0x5f, 0x33, 0x32, 0x00, 
  0x02, 0x00, 0x00, 0x00, 0x34, 0x00, 0x00, 0x00, 0x04, 0x00, 0x00, 0x00, 
  0xdc, 0xff, 0xff, 0xff, 0x0c, 0x00, 0x00, 0x00, 0x04, 0x00, 0x00, 0x00, 
  0x13, 0x00, 0x00, 0x00, 0x43, 0x4f, 0x4e, 0x56, 0x45, 0x52, 0x53, 0x49, 
  0x4f, 0x4e, 0x5f, 0x4d, 0x45, 0x54, 0x41, 0x44, 0x41, 0x54, 0x41, 0x00, 
  0x08, 0x00, 0x0c, 0x00, 0x08, 0x00, 0x04, 0x00, 0x08, 0x00, 0x00, 0x00, 
  0x0b, 0x00, 0x00, 0x00, 0x04, 0x00, 0x00, 0x00, 0x13, 0x00, 0x00, 0x00, 
  0x6d, 0x69, 0x6e, 0x5f, 0x72, 0x75, 0x6e, 0x74, 0x69, 0x6d, 0x65, 0x5f, 
  0x76, 0x65, 0x72, 0x73, 0x69, 0x6f, 0x6e, 0x00, 0x0d, 0x00, 0x00, 0x00, 
  0x70, 0x15, 0x00, 0x00, 0x68, 0x15, 0x00, 0x00, 0x44, 0x15, 0x00, 0x00, 
  0xec, 0x13, 0x00, 0x00, 0xdc, 0x12, 0x00, 0x00, 0xcc, 0x02, 0x00, 0x00, 
  0xbc, 0x01, 0x00, 0x00, 0xac, 0x00, 0x00, 0x00, 0xa4, 0x00, 0x00, 0x00, 
  0x9c, 0x00, 0x00, 0x00, 0x94, 0x00, 0x00, 0x00, 0x74, 0x00, 0x00, 0x00, 
  0x04, 0x00, 0x00, 0x00, 0xee, 0xea, 0xff, 0xff, 0x04, 0x00, 0x00, 0x00, 
  0x60, 0x00, 0x00, 0x00, 0x0c, 0x00, 0x00, 0x00, 0x08, 0x00, 0x0e, 0x00, 
  0x08, 0x00, 0x04, 0x00, 0x08, 0x00, 0x00, 0x00, 0x10, 0x00, 0x00, 0x00, 
  0x28, 0x00, 0x00, 0x00, 0x00, 0x00, 0x06, 0x00, 0x08, 0x00, 0x04, 0x00, 
  0x06, 0x00, 0x00, 0x00, 0x04, 0x00, 0x00, 0x00, 0x01, 0x00, 0x00, 0x00, 
  0xeb, 0x03, 0x00, 0x00, 0x0c, 0x00, 0x18, 0x00, 0x14, 0x00, 0x10, 0x00, 
  0x0c, 0x00, 0x04, 0x00, 0x0c, 0x00, 0x00, 0x00, 0x43, 0xfa, 0x5c, 0xbd, 
  0xa5, 0x6f, 0x24, 0x96, 0x02, 0x00, 0x00, 0x00, 0x02, 0x00, 0x00, 0x00, 
  0x04, 0x00, 0x00, 0x00, 0x06, 0x00, 0x00, 0x00, 0x32, 0x2e, 0x32, 0x30, 
  0x2e, 0x30, 0x00, 0x00, 0x5a, 0xeb, 0xff, 0xff, 0x04, 0x00, 0x00, 0x00, 
  0x10, 0x00, 0x00, 0x00, 0x31, 0x2e, 0x31, 0x34, 0x2e, 0x30, 0x00, 0x00, 
  0x00, 0x00, 0x00, 0x00, 0x00, 0x00, 0x00, 0x00, 0xd4, 0xea, 0xff, 0xff, 
  0xd8, 0xea, 0xff, 0xff, 0xdc, 0xea, 0xff, 0xff, 0x82, 0xeb, 0xff, 0xff, 
  0x04, 0x00, 0x00, 0x00, 0x00, 0x01, 0x00, 0x00, 0xce, 0x7f, 0x1a, 0xdf, 
  0xb0, 0x81, 0x52, 0xb1, 0xf7, 0x3d, 0x81, 0x3a, 0x69, 0xd3, 0x64, 0x7f, 
  0x94, 0x7f, 0xd3, 0xb0, 0x7f, 0x00, 0xcd, 0xf0, 0x7f, 0x3d, 0x22, 0xe4, 
  0x81, 0x4c, 0x9f, 0x61, 0x60, 0x81, 0xda, 0x65, 0x7f, 0x75, 0x4b, 0x00, 
  0xe9, 0x81, 0x67, 0x47, 0x50, 0xd7, 0x7f, 0x72, 0x71, 0xa1, 0x7f, 0x46, 
  0x56, 0x81, 0xee, 0x26, 0x7f, 0x27, 0xfd, 0xeb, 0x98, 0xe8, 0x7f, 0x4e, 
  0x0c, 0x4f, 0x95, 0x81, 0x7f, 0xce, 0x52, 0x32, 0x81, 0x9b, 0xbd, 0x64, 
  0x7f, 0x5d, 0x51, 0x75, 0xcc, 0x39, 0x7f, 0x7c, 0xcc, 0x3a, 0xb9, 0x81, 
  0x24, 0xe3, 0x7f, 0x34, 0x81, 0x33, 0x66, 0x03, 0x8d, 0xa8, 0x7f, 0x96, 
  0xb3, 0xa5, 0xdc, 0x81, 0x5e, 0x7f, 0x84, 0x3b, 0x81, 0x93, 0xec, 0x7d, 
  0x61, 0x4b, 0x81, 0x7e, 0xd7, 0xb6, 0x18, 0x81, 0x37, 0xf0, 0x7f, 0x97, 
  0x0b, 0xa9, 0x81, 0xda, 0x7f, 0xcf, 0x49, 0x56, 0xe4, 0x6a, 0x77, 0x81, 
  0x7b, 0x7f, 0xea, 0x70, 0x7f, 0x3e, 0xc0, 0xb8, 0x12, 0x81, 0x0a, 0x46, 
  0x4b, 0x8b, 0x00, 0x81, 0x81, 0x63, 0x04, 0x5e, 0xbf, 0x81, 0xa3, 0xde, 
  0x6b, 0x81, 0x8f, 0x5b, 0x04, 0x7f, 0x12, 0x04, 0x4e, 0xa5, 0x7f, 0xe9, 
  0x6c, 0xff, 0xb0, 0x7f, 0xb2, 0x7d, 0x65, 0x81, 0x7f, 0x46, 0x42, 0x89, 
  0x9a, 0x9b, 0x7f, 0xca, 0xaf, 0x7f, 0x7c, 0x68, 0x60, 0x7f, 0x6c, 0x95, 
  0xdc, 0x81, 0x9a, 0x19, 0x81, 0x2c, 0xad, 0x7f, 0x03, 0x17, 0x81, 0xd1, 
  0x36, 0x9f, 0x81, 0x63, 0x3f, 0x7f, 0xfc, 0xa2, 0x91, 0x7f, 0xd3, 0xf1, 
  0xfe, 0xf5, 0x11, 0x81, 0x81, 0xd9, 0x58, 0x58, 0x81, 0x39, 0xd7, 0x43, 
  0x84, 0x7f, 0xf1, 0x2e, 0x36, 0x75, 0x7f, 0x57, 0x1f, 0x9a, 0x81, 0x4c, 
  0x1b, 0x8e, 0x42, 0x81, 0x22, 0x1d, 0x81, 0xda, 0x1f, 0x89, 0x81, 0x94, 
  0x8e, 0xec, 0xff, 0xff, 0x04, 0x00, 0x00, 0x00, 0x00, 0x01, 0x00, 0x00, 
  0xce, 0x4f, 0x00, 0x00, 0x98, 0x73, 0x00, 0x00, 0x95, 0x50, 0x00, 0x00, 
  0xb3, 0x5e, 0x00, 0x00, 0xb2, 0x37, 0x00, 0x00, 0x26, 0x52, 0x00, 0x00, 
  0x81, 0x82, 0xff, 0xff, 0x7c, 0x3b, 0x00, 0x00, 0x1a, 0x7e, 0x00, 0x00, 
  0x83, 0x5a, 0x00, 0x00, 0x5c, 0x73, 0x00, 0x00, 0x38, 0x4a, 0x00, 0x00, 
  0x69, 0x85, 0x00, 0x00, 0xdb, 0x62, 0x00, 0x00, 0x28, 0x4a, 0x00, 0x00, 
  0x2d, 0x35, 0x00, 0x00, 0xab, 0x5f, 0x00, 0x00, 0x9e, 0x49, 0x00, 0x00, 
  0x80, 0x46, 0x00, 0x00, 0xab, 0x61, 0x00, 0x00, 0x11, 0x4a, 0x00, 0x00, 
  0x35, 0x56, 0x00, 0x00, 0xed, 0x44, 0x00, 0x00, 0x04, 0x53, 0x00, 0x00, 
  0x7e, 0x54, 0x00, 0x00, 0x8f, 0x31, 0x00, 0x00, 0x12, 0x44, 0x00, 0x00, 
  0xd0, 0x64, 0x00, 0x00, 0x23, 0x46, 0x00, 0x00, 0x2d, 0x54, 0x00, 0x00, 
  0x51, 0x33, 0x00, 0x00, 0x0a, 0x5b, 0x00, 0x00, 0xa0, 0x47, 0x00, 0x00, 
  0xa8, 0x67, 0x00, 0x00, 0x8a, 0x3e, 0x00, 0x00, 0x18, 0x3c, 0x00, 0x00, 
  0x24, 0x57, 0x00, 0x00, 0xd6, 0x40, 0x00, 0x00, 0x6a, 0x56, 0x00, 0x00, 
  0x03, 0x5d, 0x00, 0x00, 0x0b, 0x52, 0x00, 0x00, 0xa1, 0x46, 0x00, 0x00, 
  0x0c, 0x43, 0x00, 0x00, 0x73, 0x5d, 0x00, 0x00, 0x39, 0x4f, 0x00, 0x00, 
  0xad, 0x42, 0x00, 0x00, 0x25, 0x43, 0x00, 0x00, 0xed, 0x7b, 0x00, 0x00, 
  0x85, 0x51, 0x00, 0x00, 0xd0, 0x50, 0x00, 0x00, 0x4f, 0x89, 0x00, 0x00, 
  0x35, 0x58, 0x00, 0x00, 0xc4, 0x44, 0x00, 0x00, 0xc2, 0x4e, 0x00, 0x00, 
  0x5c, 0x72, 0x00, 0x00, 0xbd, 0x46, 0x00, 0x00, 0xd2, 0x3f, 0x00, 0x00, 
  0x52, 0x63, 0x00, 0x00, 0x6f, 0x53, 0x00, 0x00, 0xc7, 0x41, 0x00, 0x00, 
  0x24, 0x4b, 0x00, 0x00, 0xbd, 0x5a, 0x00, 0x00, 0xb6, 0x57, 0x00, 0x00, 
  0x45, 0x41, 0x00, 0x00, 0x9a, 0xed, 0xff, 0xff, 0x04, 0x00, 0x00, 0x00, 
  0x00, 0x10, 0x00, 0x00, 0x7f, 0x57, 0x45, 0x35, 0x1a, 0x3a, 0x2e, 0x38, 
  0x5c, 0x3c, 0x6a, 0x4c, 0x66, 0x20, 0x5d, 0x25, 0x6f, 0x48, 0x61, 0x3e, 
  0x13, 0x27, 0x6d, 0x67, 0x18, 0x3c, 0x3e, 0x1c, 0x26, 0x4b, 0x35, 0x65, 
  0x5c, 0x38, 0x06, 0x62, 0x25, 0x0f, 0x34, 0x4a, 0x32, 0x33, 0x40, 0x34, 
  0x2b, 0x26, 0x5d, 0x26, 0x5b, 0x2a, 0x48, 0x4b, 0x43, 0x4a, 0x2e, 0x3a, 
  0x68, 0x34, 0x32, 0x4b, 0x17, 0x53, 0x65, 0x43, 0x28, 0x3c, 0x3b, 0x24, 
  0xbd, 0x06, 0x00, 0xc4, 0x86, 0x81, 0xc5, 0xd6, 0x3a, 0xb4, 0x92, 0x4c, 
  0xc4, 0x01, 0xaf, 0xeb, 0x8d, 0x15, 0x53, 0x37, 0x32, 0xad, 0x97, 0x51, 
  0x63, 0x4f, 0xd7, 0x06, 0x04, 0xc6, 0xb4, 0xfd, 0x04, 0x28, 0x0e, 0xc1, 
  0xd2, 0xd6, 0xd8, 0x47, 0x31, 0x13, 0xa4, 0xf0, 0x37, 0x2f, 0x8d, 0x0c, 
  0x1c, 0x2b, 0x07, 0xd7, 0xf8, 0x8e, 0x5c, 0x0e, 0x11, 0xe5, 0xba, 0x99, 
  0x51, 0xc6, 0x81, 0x18, 0x3a, 0x3e, 0xcf, 0xf3, 0x0d, 0xc5, 0xb3, 0xb1, 
  0x3e, 0xe9, 0x47, 0x19, 0x39, 0xb6, 0x27, 0xd7, 0x17, 0xbf, 0x59, 0x3e, 
  0xac, 0xe3, 0xe9, 0xea, 0xb1, 0xed, 0xbd, 0x87, 0x48, 0x5f, 0x5e, 0x5a, 
  0x23, 0x06, 0xa4, 0x10, 0x8b, 0xf1, 0x3b, 0x38, 0xee, 0xb6, 0x43, 0x88, 
  0xc2, 0x3a, 0xc9, 0xc3, 0x3e, 0x1f, 0xa8, 0x1d, 0xad, 0x19, 0x46, 0x94, 
  0xdc, 0x86, 0xec, 0x15, 0x21, 0x6d, 0x38, 0x45, 0x2d, 0x19, 0x1d, 0x59, 
  0x51, 0x21, 0x65, 0x5f, 0x31, 0x41, 0x00, 0x54, 0x1f, 0x17, 0x3c, 0x32, 
  0x30, 0x3d, 0x7b, 0x46, 0x2c, 0x4f, 0x0a, 0x70, 0x17, 0x4e, 0x26, 0x7a, 
  0x4e, 0x09, 0xf7, 0x07, 0x7d, 0x4e, 0x26, 0x7f, 0x15, 0x15, 0x5a, 0x51, 
  0x40, 0x2e, 0x49, 0x3f, 0x40, 0x2c, 0x78, 0x46, 0x5a, 0x43, 0x31, 0x4f, 
  0x64, 0x60, 0x3a, 0x20, 0x2d, 0x61, 0x16, 0x25, 0xef, 0x34, 0x21, 0x5c, 
  0xa8, 0x00, 0x30, 0x25, 0x4c, 0x32, 0x54, 0xc5, 0xe9, 0x47, 0xaf, 0x2b, 
  0xb3, 0x8f, 0xca, 0xd8, 0x08, 0x29, 0x47, 0xf9, 0x4d, 0x1b, 0xc7, 0xbc, 
  0x09, 0x13, 0xb4, 0x35, 0x81, 0x93, 0x3e, 0xed, 0x5c, 0xc0, 0xbf, 0xd4, 
  0x18, 0xc1, 0xc6, 0x08, 0x4c, 0xaa, 0x92, 0xfb, 0x2c, 0x1a, 0xc2, 0x4d, 
  0xb8, 0xb3, 0x58, 0x41, 0xd1, 0x19, 0xf2, 0xf2, 0xa4, 0xfc, 0x83, 0xb5, 
  0xe4, 0x08, 0x47, 0x5b, 0xde, 0x16, 0x0c, 0x5b, 0x62, 0x31, 0x38, 0x4d, 
  0x4d, 0x53, 0x17, 0x54, 0xca, 0x2b, 0x4f, 0x43, 0x5f, 0xbb, 0x57, 0x4a, 
  0xd7, 0xd7, 0x2f, 0x6b, 0x5b, 0xa5, 0xb9, 0xfd, 0x4e, 0xb8, 0x4a, 0xce, 
  0x5b, 0xc7, 0x64, 0x33, 0x5a, 0x35, 0x04, 0x60, 0xd3, 0xbf, 0x0f, 0x4b, 
  0xd6, 0x42, 0x69, 0xf8, 0x3f, 0xb7, 0x30, 0x81, 0x4f, 0x68, 0x5b, 0x41, 
  0x44, 0xcc, 0xe8, 0xc8, 0x19, 0x3f, 0xfe, 0x98, 0x33, 0xa9, 0x1c, 0x0b, 
  0x1d, 0x2f, 0x18, 0xf5, 0x3f, 0xe1, 0xe3, 0xb4, 0x0d, 0x43, 0x16, 0xde, 
  0x9a, 0xea, 0x31, 0x81, 0xf2, 0xd3, 0x25, 0xf1, 0xe9, 0x0f, 0xc6, 0xe2, 
  0x34, 0x55, 0x57, 0xb0, 0xab, 0x34, 0x0c, 0x3f, 0xe4, 0x28, 0xa0, 0x99, 
  0x0d, 0x93, 0xcc, 0x0e, 0x50, 0xfd, 0x2e, 0xd3, 0x11, 0xf7, 0x24, 0xa4, 
  0x3d, 0xec, 0xa0, 0xf5, 0x06, 0xa2, 0x9e, 0x39, 0x98, 0xac, 0x30, 0xf6, 
  0x3c, 0x38, 0x65, 0x33, 0xe0, 0xab, 0xc0, 0x3f, 0x56, 0xf2, 0xe4, 0xa7, 
  0x8d, 0xa1, 0xa6, 0x19, 0x11, 0x2d, 0x53, 0xd5, 0x2d, 0x24, 0xc6, 0x3e, 
  0x26, 0x0a, 0x81, 0x89, 0xb2, 0xf6, 0x91, 0xc4, 0xa3, 0x2c, 0x0d, 0x03, 
  0x2e, 0x54, 0xff, 0xb6, 0xae, 0xdd, 0x56, 0xde, 0xbe, 0xb3, 0x47, 0xac, 
  0x94, 0x21, 0x41, 0x42, 0xd5, 0xa2, 0x38, 0x0e, 0xfb, 0xa5, 0x54, 0x41, 
  0xbd, 0x45, 0xc3, 0x22, 0xff, 0x07, 0xd5, 0xfa, 0xb2, 0x9c, 0x52, 0x23, 
  0xc4, 0xd1, 0x51, 0x3a, 0x32, 0xe0, 0x20, 0x81, 0x47, 0x9f, 0xe6, 0x85, 
  0x5e, 0x86, 0xf8, 0xe6, 0xb5, 0x27, 0xff, 0x2b, 0xbc, 0xcd, 0x53, 0x1c, 
  0x31, 0x52, 0xfc, 0x22, 0x29, 0x40, 0xd3, 0x31, 0x56, 0x09, 0x87, 0x88, 
  0x1b, 0x9e, 0x04, 0x13, 0xa5, 0xb5, 0x3f, 0xe0, 0xbb, 0x95, 0x41, 0x3a, 
  0x28, 0x3f, 0xda, 0xef, 0xcb, 0x00, 0xe6, 0x0c, 0xb4, 0xa2, 0xfa, 0x32, 
  0xb8, 0x95, 0x38, 0x8d, 0xa6, 0x02, 0x2a, 0xf0, 0xe5, 0x4b, 0xa4, 0xa8, 
  0x27, 0x0c, 0x08, 0x47, 0x0c, 0x30, 0xa8, 0x8f, 0xf7, 0xa5, 0x47, 0x17, 
  0x93, 0xc8, 0xea, 0x39, 0x4f, 0x38, 0xe0, 0xd7, 0xda, 0xec, 0x39, 0x18, 
  0x1f, 0x0c, 0xc1, 0xd6, 0x0e, 0x29, 0x1b, 0xf5, 0xd2, 0xd1, 0xbb, 0x23, 
  0x01, 0xd4, 0x9f, 0x2e, 0x39, 0x81, 0x43, 0xcb, 0x32, 0x6f, 0x4c, 0x59, 
  0x19, 0x33, 0x2b, 0x3a, 0x45, 0x2e, 0x3a, 0x52, 0x1b, 0x2c, 0x5c, 0x46, 
  0x29, 0x18, 0x51, 0x0f, 0x1c, 0x2a, 0x2d, 0x3b, 0x4c, 0x34, 0x0c, 0x2d, 
  0x26, 0x6d, 0x19, 0x6c, 0x25, 0x53, 0xf5, 0x4a, 0x29, 0x27, 0x29, 0x48, 
  0x25, 0x49, 0x4d, 0x45, 0x5a, 0x34, 0x5e, 0x36, 0x0d, 0x4a, 0x4b, 0x30, 
  0x3e, 0x31, 0x3c, 0x7f, 0x21, 0x4a, 0x57, 0x3e, 0x39, 0x29, 0x3a, 0x60, 
  0x5f, 0xf1, 0x61, 0x21, 0x44, 0x3e, 0x0e, 0x05, 0x35, 0x42, 0x08, 0x60, 
  0x5d, 0x19, 0x75, 0x3b, 0x33, 0x36, 0x1a, 0x46, 0x14, 0x48, 0x30, 0x12, 
  0x2a, 0xde, 0x73, 0xe7, 0x5d, 0x0b, 0x52, 0x25, 0x66, 0x4c, 0x76, 0x74, 
  0x04, 0xf9, 0x56, 0x23, 0x1a, 0x7f, 0x4e, 0x62, 0x32, 0x35, 0x1d, 0x55, 
  0x2e, 0x24, 0x4d, 0x69, 0x4e, 0x33, 0x5e, 0x25, 0xec, 0x28, 0x55, 0x4e, 
  0x15, 0x31, 0x5c, 0xf4, 0x0e, 0x15, 0x37, 0x49, 0xc1, 0x85, 0x18, 0x8f, 
  0xe4, 0x0a, 0x31, 0x10, 0x1d, 0xf1, 0x5a, 0x4d, 0x10, 0x9e, 0xa1, 0xf4, 
  0xa0, 0x05, 0x16, 0x16, 0xa8, 0xd7, 0x32, 0x40, 0xc6, 0x1e, 0x30, 0xb0, 
  0x09, 0xfe, 0xfa, 0x58, 0x81, 0x9a, 0xb7, 0x8d, 0x12, 0x5c, 0x20, 0xa5, 
  0x84, 0x58, 0xe4, 0x14, 0x91, 0xa9, 0x24, 0xed, 0xb2, 0x88, 0x67, 0xfc, 
  0x06, 0xca, 0x6b, 0xf4, 0xfb, 0xf3, 0x4f, 0x2a, 0x37, 0x41, 0x41, 0x6d, 
  0x15, 0x67, 0xda, 0x07, 0x7b, 0x05, 0x78, 0x6e, 0x70, 0x3f, 0x5c, 0x37, 
  0x2c, 0x34, 0x6b, 0x2c, 0x50, 0x60, 0x7f, 0x2f, 0x4d, 0x56, 0x43, 0x5f, 
  0x3a, 0x57, 0x47, 0x7f, 0x23, 0x4d, 0x2b, 0x06, 0x33, 0x2e, 0x3b, 0x3e, 
  0x5d, 0x18, 0x42, 0x57, 0x12, 0x0a, 0x79, 0x26, 0x48, 0x39, 0x7d, 0x68, 
  0x32, 0x56, 0x76, 0x66, 0x24, 0x6c, 0x48, 0x5b, 0x6b, 0x32, 0x42, 0x37, 
  0x32, 0x10, 0x5e, 0x4f, 0x0d, 0x2b, 0x06, 0x1c, 0x22, 0x46, 0x34, 0x5b, 
  0x5c, 0x21, 0x7f, 0x44, 0x33, 0x52, 0x24, 0x76, 0x4c, 0x32, 0x57, 0x50, 
  0x0f, 0x00, 0x44, 0x19, 0x1c, 0x05, 0x2f, 0x5f, 0x62, 0x5b, 0x48, 0x74, 
  0x46, 0x17, 0x1f, 0x32, 0x3b, 0x7d, 0x5d, 0x14, 0x26, 0x3a, 0x1e, 0x66, 
  0x4c, 0x4d, 0x3f, 0x73, 0x5d, 0x51, 0x6d, 0x47, 0x46, 0x41, 0x6b, 0x2c, 
  0x0f, 0x1a, 0x6d, 0x22, 0x3b, 0x35, 0x5b, 0x42, 0x05, 0x3f, 0xd5, 0x52, 
  0x41, 0x59, 0x57, 0x75, 0x3b, 0x52, 0x56, 0x35, 0x5f, 0x61, 0x64, 0x11, 
  0x52, 0x20, 0x64, 0x54, 0x23, 0x21, 0x5a, 0x4f, 0x21, 0x7b, 0x3c, 0x34, 
  0x79, 0x20, 0x2c, 0x05, 0x35, 0x5f, 0x3a, 0x39, 0x3f, 0x15, 0x42, 0x3e, 
  0x51, 0x46, 0x45, 0x6a, 0x39, 0x46, 0x7f, 0x57, 0x19, 0x3e, 0x18, 0x61, 
  0x70, 0x2c, 0x35, 0x0a, 0x35, 0x58, 0x20, 0x4a, 0x3b, 0x7f, 0x1e, 0x63, 
  0x0e, 0x24, 0xdc, 0x52, 0x50, 0x11, 0x2d, 0x5a, 0x5d, 0x43, 0x51, 0x46, 
  0x2b, 0x71, 0x3a, 0x35, 0x37, 0x68, 0x41, 0x2e, 0x79, 0x1b, 0x29, 0x11, 
  0xf7, 0x47, 0x64, 0x2d, 0x3a, 0x5b, 0x3f, 0x22, 0x50, 0x35, 0x14, 0x69, 
  0x32, 0x57, 0x1e, 0x35, 0x21, 0x4e, 0x5c, 0x46, 0x10, 0x6a, 0x3b, 0x7f, 
  0x4b, 0x17, 0x4f, 0x7d, 0x2a, 0x72, 0x44, 0x56, 0x34, 0x7a, 0x26, 0x5b, 
  0x44, 0x34, 0x6c, 0x4d, 0x1d, 0x4c, 0xe5, 0x5e, 0x5b, 0x36, 0x63, 0x26, 
  0x41, 0x11, 0x31, 0x07, 0x39, 0x11, 0x27, 0x25, 0x44, 0x16, 0x18, 0x42, 
  0x19, 0x1d, 0x32, 0x39, 0x34, 0x22, 0x4d, 0x5b, 0x20, 0x20, 0x0f, 0x6e, 
  0x3e, 0x4e, 0x25, 0x28, 0x50, 0x7f, 0x27, 0x4e, 0x5e, 0x3c, 0x52, 0x6c, 
  0x14, 0x3f, 0x32, 0x42, 0x52, 0x65, 0x1e, 0x26, 0x4b, 0x48, 0x37, 0x22, 
  0x41, 0x13, 0x67, 0x52, 0x35, 0x57, 0x67, 0x79, 0x67, 0x48, 0x04, 0x0f, 
  0x74, 0x26, 0x5b, 0x2e, 0x5f, 0x37, 0x76, 0x58, 0x57, 0x5f, 0x31, 0x11, 
  0x1a, 0x6f, 0x79, 0x2e, 0x7c, 0x22, 0x09, 0x1f, 0x2d, 0x3b, 0x32, 0x7f, 
  0x50, 0x24, 0x09, 0x6b, 0x4f, 0x3f, 0x68, 0x61, 0x3a, 0x55, 0x28, 0x40, 
  0x79, 0x60, 0x7e, 0x4a, 0x51, 0x7e, 0x79, 0x6c, 0x5a, 0x3a, 0x63, 0x39, 
  0x4d, 0x63, 0x61, 0x1e, 0x6d, 0x27, 0x2e, 0x4c, 0x3e, 0x45, 0x2f, 0x0c, 
  0x6a, 0x36, 0x01, 0x1f, 0x11, 0x19, 0x39, 0x50, 0x33, 0x51, 0x26, 0x36, 
  0x60, 0x44, 0x5c, 0x38, 0x5f, 0x71, 0x2a, 0x74, 0x73, 0x49, 0x31, 0x10, 
  0xff, 0x5f, 0x61, 0x2c, 0x1c, 0x2e, 0x33, 0x57, 0x15, 0x5e, 0x70, 0x30, 
  0x3a, 0x55, 0x68, 0x56, 0x6f, 0x3e, 0x79, 0x67, 0x28, 0x40, 0x42, 0x45, 
  0x13, 0x4b, 0x7f, 0x5b, 0x6d, 0x70, 0x66, 0x4b, 0x47, 0x5d, 0x5d, 0x52, 
  0x08, 0xe0, 0xae, 0xfd, 0x56, 0x4d, 0x50, 0xd7, 0xaa, 0x87, 0xd5, 0x15, 
  0x5b, 0xec, 0xe9, 0x89, 0xa8, 0x1c, 0xde, 0xa0, 0x93, 0x63, 0xba, 0xba, 
  0xe6, 0xa1, 0x03, 0x92, 0x90, 0xe0, 0x50, 0xad, 0xfe, 0xcf, 0x41, 0xd0, 
  0x00, 0xb7, 0x39, 0x9f, 0xcb, 0x9e, 0x3d, 0x5c, 0x40, 0x47, 0x26, 0x09, 
  0x5f, 0x32, 0xca, 0x2d, 0x3c, 0x81, 0x4a, 0xbe, 0x3d, 0xbf, 0xd6, 0xb6, 
  0x13, 0x94, 0x4f, 0x25, 0xcd, 0xaa, 0xf5, 0x4e, 0xe8, 0x22, 0xdd, 0x95, 
  0x45, 0x1b, 0x08, 0xf4, 0x30, 0xe5, 0x16, 0x09, 0x21, 0x58, 0xc2, 0x58, 
  0x1b, 0xca, 0x29, 0x8b, 0xc9, 0x21, 0x28, 0xef, 0x39, 0xa4, 0x55, 0xb8, 
  0x47, 0x0f, 0x78, 0x3c, 0x01, 0x47, 0xb3, 0x8d, 0x4e, 0xdf, 0x3f, 0x3f, 
  0xfb, 0x52, 0xbc, 0x11, 0x15, 0xc9, 0xa0, 0xa5, 0xf8, 0x5d, 0xba, 0xcf, 
  0xe2, 0xb3, 0x81, 0x5d, 0xc8, 0x32, 0x1b, 0x09, 0x2b, 0x17, 0x3d, 0x52, 
  0x52, 0x2d, 0xf8, 0x56, 0x24, 0x4e, 0x08, 0x12, 0x2e, 0x39, 0x5f, 0x25, 
  0x28, 0x56, 0x16, 0x78, 0x3e, 0x62, 0x28, 0x39, 0x25, 0x21, 0x28, 0x24, 
  0x61, 0x09, 0x02, 0x16, 0x3f, 0x36, 0x34, 0x4f, 0x09, 0x46, 0x51, 0x1e, 
  0x0a, 0x7f, 0x34, 0x18, 0x4b, 0x55, 0x47, 0x5e, 0x57, 0x33, 0x5b, 0x28, 
  0x17, 0x64, 0x77, 0x4c, 0x48, 0x57, 0x31, 0x63, 0x32, 0x2e, 0x59, 0x28, 
  0x21, 0x27, 0xd5, 0x39, 0xac, 0x85, 0x4b, 0xe5, 0x02, 0x55, 0x2b, 0x34, 
  0xd6, 0x27, 0xf9, 0x37, 0xb5, 0x3b, 0xf6, 0x20, 0xb7, 0x0e, 0xc6, 0x2f, 
  0x82, 0x0a, 0x26, 0xbd, 0x13, 0xa7, 0xe3, 0xd8, 0xa7, 0xdc, 0x49, 0xb2, 
  0x11, 0x14, 0x26, 0x47, 0xa9, 0x12, 0xdc, 0xbd, 0x03, 0x08, 0xf1, 0xf4, 
  0x8b, 0xfd, 0xc5, 0x0e, 0x1e, 0x3b, 0xa3, 0x11, 0x3e, 0x42, 0xc0, 0x81, 
  0xe8, 0xe6, 0x2f, 0x11, 0x75, 0x66, 0x3b, 0x41, 0x15, 0x60, 0xf3, 0x07, 
  0x3d, 0x4d, 0x35, 0x29, 0x7a, 0x69, 0x7f, 0x01, 0x51, 0x58, 0x31, 0x44, 
  0x39, 0x6c, 0x31, 0x66, 0x24, 0x09, 0x44, 0x3a, 0x67, 0x24, 0x41, 0x44, 
  0x4c, 0x3e, 0x18, 0x55, 0x1a, 0x38, 0x68, 0x5d, 0x3e, 0x4c, 0x62, 0x39, 
  0x5e, 0x27, 0x2f, 0x3e, 0x3c, 0x3f, 0x41, 0x58, 0x52, 0x2b, 0x56, 0x3c, 
  0x05, 0x41, 0x1d, 0x15, 0x62, 0x38, 0x55, 0x0f, 0x24, 0x75, 0x61, 0x66, 
  0x46, 0x4e, 0xea, 0x4c, 0x40, 0x51, 0x46, 0x30, 0x65, 0x68, 0x50, 0x66, 
  0x4d, 0x11, 0x0c, 0x23, 0x3d, 0x64, 0x69, 0x64, 0x4c, 0x5f, 0x63, 0x22, 
  0x02, 0x7f, 0x51, 0x22, 0x4d, 0x68, 0x46, 0x69, 0x67, 0x38, 0x69, 0x63, 
  0x2c, 0x37, 0x28, 0x6c, 0x4d, 0x27, 0x59, 0x71, 0x52, 0x71, 0x44, 0x4a, 
  0x48, 0x31, 0x44, 0x53, 0x1c, 0x65, 0x35, 0x4c, 0x24, 0x1d, 0x42, 0x1c, 
  0xc7, 0xfe, 0xab, 0xa8, 0xc6, 0xf9, 0x16, 0xca, 0xcd, 0xc2, 0x81, 0xbb, 
  0x06, 0x32, 0x8a, 0xae, 0xa3, 0x24, 0x91, 0x19, 0xbd, 0x31, 0x23, 0x09, 
  0x33, 0x1a, 0xf8, 0x02, 0x48, 0xb1, 0x1e, 0x87, 0x43, 0x9d, 0x16, 0xaa, 
  0x42, 0x36, 0xcd, 0x06, 0xe6, 0xb4, 0xfe, 0xa9, 0xb5, 0xc3, 0x3b, 0xca, 
  0x8f, 0x8f, 0x11, 0xcb, 0x33, 0xf4, 0xb2, 0x2d, 0xea, 0xd2, 0x3e, 0xcd, 
  0x2f, 0xd4, 0xb2, 0x30, 0x5d, 0x0a, 0x2c, 0x58, 0x16, 0x7f, 0x19, 0x40, 
  0x65, 0x48, 0x49, 0x52, 0x55, 0x47, 0x24, 0x15, 0x25, 0x26, 0x0b, 0x24, 
  0x5f, 0x48, 0x3c, 0x3c, 0x4d, 0x4c, 0x0c, 0x04, 0x3b, 0x53, 0x39, 0x34, 
  0x15, 0x3c, 0x62, 0x57, 0x21, 0x51, 0x43, 0x40, 0x31, 0x69, 0x5d, 0x56, 
  0x13, 0x25, 0x2a, 0x65, 0x5c, 0x23, 0x3f, 0x3c, 0x54, 0x31, 0x60, 0x5c, 
  0x44, 0x6f, 0x41, 0x4a, 0x33, 0x0b, 0x58, 0x39, 0x3a, 0x52, 0x2a, 0x23, 
  0x34, 0x5f, 0x0e, 0x39, 0x28, 0x22, 0x60, 0x5a, 0x7f, 0x5d, 0x63, 0x4c, 
  0x4e, 0x34, 0x61, 0x20, 0x47, 0x2c, 0x49, 0x2e, 0x6e, 0x2a, 0x1c, 0x17, 
  0x29, 0x3a, 0x45, 0x6e, 0x40, 0x17, 0x19, 0x13, 0x62, 0x53, 0x0d, 0x1f, 
  0x25, 0x63, 0x64, 0x59, 0x12, 0x09, 0x55, 0x4b, 0x3d, 0x5a, 0x47, 0x48, 
  0x3a, 0x45, 0x51, 0x61, 0x1c, 0x23, 0x08, 0x50, 0x5d, 0x64, 0x1f, 0x67, 
  0x3e, 0x23, 0x5b, 0x66, 0x42, 0x48, 0xf1, 0x5f, 0x77, 0x32, 0x67, 0x5b, 
  0x38, 0x63, 0x7f, 0x55, 0x3c, 0x1e, 0x44, 0x4a, 0x1c, 0x1f, 0x69, 0x1d, 
  0x19, 0x07, 0x1d, 0x46, 0x3e, 0x3b, 0x0d, 0x48, 0x6a, 0x53, 0x61, 0x3c, 
  0x47, 0x04, 0x49, 0x20, 0x44, 0x33, 0x2a, 0x6d, 0x0a, 0x38, 0x3d, 0x75, 
  0x1f, 0x4f, 0x3b, 0x5a, 0x0f, 0x2d, 0x65, 0x57, 0x2f, 0x36, 0x53, 0x27, 
  0x54, 0x6a, 0x5f, 0x01, 0x18, 0x65, 0x48, 0x6d, 0x07, 0x52, 0x0f, 0x44, 
  0x62, 0x30, 0x6f, 0x24, 0x6b, 0x6a, 0x6c, 0x24, 0x36, 0x2e, 0x55, 0x47, 
  0x70, 0x3f, 0x29, 0x64, 0x3a, 0x3f, 0x57, 0x35, 0x2f, 0x3a, 0x19, 0x50, 
  0x78, 0x15, 0x23, 0x2c, 0x74, 0x5b, 0x2a, 0x79, 0x2b, 0x49, 0x79, 0x30, 
  0x05, 0x54, 0x56, 0x74, 0x3a, 0x7f, 0x5e, 0x1e, 0x20, 0x31, 0x63, 0x41, 
  0x1d, 0x61, 0x41, 0x3e, 0x3c, 0x1c, 0x4b, 0x34, 0x61, 0x36, 0x70, 0x68, 
  0xfb, 0x7f, 0x21, 0x55, 0x4c, 0x77, 0x67, 0x4a, 0x6d, 0x51, 0x2d, 0x45, 
  0x52, 0x5c, 0x08, 0x73, 0x63, 0x1e, 0x2e, 0x5c, 0x26, 0x12, 0x31, 0x0f, 
  0x74, 0x20, 0x32, 0x45, 0x67, 0x52, 0x4c, 0x40, 0x4a, 0x3a, 0x76, 0x36, 
  0x55, 0x61, 0x28, 0x34, 0x57, 0x04, 0x3c, 0x2d, 0x2c, 0x4f, 0x60, 0x18, 
  0x21, 0x32, 0x3b, 0x6b, 0x15, 0x70, 0x1d, 0x5e, 0x49, 0x15, 0x2e, 0x0d, 
  0x21, 0x7f, 0x0d, 0x76, 0x36, 0x6b, 0xf6, 0x41, 0x5d, 0x53, 0x3a, 0x41, 
  0x5a, 0x29, 0x6a, 0x17, 0x21, 0x2d, 0x1a, 0x52, 0x53, 0x48, 0x38, 0x32, 
  0x39, 0x28, 0x1e, 0x64, 0x41, 0x42, 0x18, 0x4b, 0x25, 0x38, 0x01, 0x18, 
  0x6f, 0x49, 0x3f, 0x43, 0x49, 0x39, 0x64, 0x50, 0x19, 0x18, 0x5e, 0x52, 
  0x3c, 0x50, 0x4b, 0x34, 0x57, 0x62, 0x42, 0x76, 0x60, 0x79, 0x57, 0x4d, 
  0x65, 0x62, 0x3a, 0x4d, 0x50, 0x3b, 0x61, 0x65, 0x04, 0x6a, 0xe0, 0x2b, 
  0x4f, 0x3c, 0x6c, 0x47, 0x61, 0x22, 0x57, 0x0a, 0x5c, 0x2e, 0x2e, 0x57, 
  0x5c, 0x5d, 0x2b, 0x72, 0x5f, 0x4a, 0x26, 0x3b, 0x17, 0x59, 0x2c, 0x31, 
  0x43, 0x32, 0x01, 0x15, 0x2a, 0x30, 0x25, 0x4a, 0x32, 0x7f, 0x5b, 0x59, 
  0x1d, 0x5d, 0x3e, 0x21, 0x31, 0x66, 0x46, 0x7f, 0x62, 0x31, 0x70, 0x7f, 
  0x6a, 0x59, 0x6d, 0x63, 0x2c, 0x0f, 0x3f, 0x5b, 0x56, 0x49, 0x30, 0x51, 
  0x5b, 0x36, 0xd5, 0x2d, 0x5c, 0x26, 0x49, 0x51, 0x3d, 0x47, 0x61, 0x49, 
  0x40, 0x5b, 0x0e, 0x67, 0x22, 0x2a, 0x4f, 0x2e, 0x4b, 0x3b, 0x16, 0x42, 
  0x5a, 0x2c, 0x45, 0x43, 0x38, 0x66, 0x25, 0x77, 0x4e, 0x65, 0x28, 0x62, 
  0x60, 0x79, 0x58, 0x6a, 0x6a, 0x50, 0x6c, 0x2c, 0x4a, 0x5a, 0x3d, 0x59, 
  0x28, 0x74, 0x54, 0x7f, 0x4f, 0x2b, 0x1a, 0x52, 0x68, 0x4d, 0x23, 0x1c, 
  0x32, 0x6e, 0x30, 0x27, 0x27, 0x3f, 0xe7, 0x37, 0x43, 0x2e, 0x3f, 0x62, 
  0x2c, 0x5c, 0x24, 0x54, 0x30, 0x4e, 0x45, 0x25, 0x55, 0x75, 0x21, 0x76, 
  0x7f, 0x4f, 0x0b, 0x37, 0x19, 0x40, 0x33, 0x4f, 0x36, 0x61, 0x56, 0x20, 
  0x3b, 0x70, 0x6a, 0x4c, 0x37, 0x48, 0x1c, 0x38, 0x68, 0x61, 0x32, 0x60, 
  0x38, 0x62, 0x4b, 0x2b, 0x25, 0x4e, 0x37, 0x52, 0x74, 0x65, 0x74, 0x5a, 
  0x70, 0x26, 0x55, 0x30, 0x3b, 0x6c, 0x3c, 0x44, 0x42, 0x39, 0x1c, 0x4c, 
  0x1f, 0x51, 0x47, 0x22, 0x55, 0x69, 0x2b, 0x0b, 0x45, 0x25, 0x21, 0x55, 
  0x5c, 0x5a, 0x57, 0x66, 0x49, 0x40, 0x55, 0x20, 0x26, 0x39, 0x48, 0x50, 
  0x26, 0x36, 0x46, 0x4e, 0x14, 0x26, 0x32, 0x35, 0x1c, 0x5c, 0x51, 0x45, 
  0x38, 0x4e, 0x32, 0x15, 0x61, 0x4a, 0x65, 0x3c, 0x31, 0x64, 0x21, 0x42, 
  0x33, 0x45, 0x12, 0x2a, 0x18, 0x7f, 0x61, 0x66, 0xa0, 0x4a, 0xad, 0x92, 
  0x55, 0x42, 0xc4, 0xc6, 0x0c, 0x8a, 0x47, 0x52, 0x2c, 0x44, 0xfa, 0xa0, 
  0x2f, 0x17, 0x4f, 0x02, 0x14, 0xf0, 0xf9, 0x8f, 0xb4, 0xf0, 0x90, 0x0e, 
  0xef, 0xea, 0xc0, 0x08, 0x2e, 0xf2, 0xc2, 0xe8, 0xf3, 0x44, 0xa4, 0x81, 
  0x99, 0xa6, 0xa2, 0xc0, 0x2d, 0xd8, 0x3d, 0x46, 0x10, 0xbd, 0x56, 0x10, 
  0x9c, 0x28, 0x3a, 0xba, 0x1d, 0x02, 0x11, 0x24, 0x32, 0xf4, 0xe3, 0x04, 
  0x6c, 0x49, 0x73, 0x49, 0x03, 0x7e, 0x11, 0x41, 0x4f, 0x5e, 0x20, 0x1f, 
  0x27, 0x6e, 0x69, 0x26, 0x57, 0x4d, 0x5d, 0x65, 0x54, 0x46, 0x30, 0x31, 
  0x50, 0x12, 0x53, 0x1a, 0x3f, 0x36, 0x1f, 0x2a, 0x16, 0x6a, 0x3f, 0x51, 
  0x4b, 0x1f, 0x22, 0x12, 0x24, 0x3a, 0x23, 0x48, 0x11, 0x4b, 0x17, 0x7f, 
  0x13, 0x58, 0x6b, 0x4a, 0x16, 0x11, 0x33, 0x64, 0x1c, 0x35, 0x3f, 0x54, 
  0x40, 0x20, 0x5c, 0x0f, 0xfe, 0x12, 0x66, 0x6d, 0x12, 0x3e, 0x16, 0x48, 
  0x75, 0x57, 0x7a, 0x46, 0x69, 0x36, 0x3f, 0x12, 0xed, 0x51, 0x3d, 0x3e, 
  0x21, 0x1a, 0x3f, 0x40, 0x34, 0x13, 0x4d, 0x71, 0x51, 0x1b, 0xfe, 0x5f, 
  0x4b, 0x1b, 0x18, 0x19, 0x54, 0x13, 0x5d, 0x12, 0x54, 0x20, 0x25, 0x52, 
  0xfb, 0xe1, 0x0b, 0x5f, 0x0c, 0x5e, 0x7f, 0x59, 0x66, 0x18, 0x07, 0x09, 
  0x24, 0x51, 0x45, 0x2e, 0x64, 0x00, 0x4f, 0x37, 0x10, 0x74, 0x37, 0x1d, 
  0x52, 0x43, 0xf3, 0x04, 0x57, 0x44, 0x29, 0x42, 0x30, 0x39, 0x60, 0x5e, 
  0x2e, 0x5b, 0x67, 0x2b, 0x28, 0x18, 0x72, 0x37, 0x51, 0x4c, 0x1a, 0x68, 
  0x13, 0x7f, 0x37, 0x41, 0x46, 0x18, 0x37, 0x40, 0x64, 0x61, 0x4c, 0x77, 
  0x26, 0x2d, 0x5b, 0x27, 0x4b, 0x33, 0x59, 0x54, 0x2e, 0x5c, 0x20, 0x6b, 
  0x2e, 0x48, 0x24, 0x50, 0x48, 0x28, 0x15, 0x32, 0x36, 0x70, 0x46, 0x3a, 
  0x15, 0x7f, 0x14, 0x09, 0x15, 0x23, 0xf1, 0x14, 0x26, 0xf3, 0x40, 0x30, 
  0x45, 0x1b, 0xfb, 0x09, 0x10, 0x10, 0x46, 0xd9, 0x0a, 0x3d, 0x40, 0x49, 
  0x6e, 0x4c, 0xfc, 0x30, 0xe1, 0x5a, 0x41, 0x32, 0x26, 0x3e, 0xc8, 0x26, 
  0x29, 0x42, 0xf5, 0x50, 0x2a, 0xf9, 0x2e, 0x14, 0x28, 0x16, 0x51, 0xf1, 
  0x18, 0x60, 0x09, 0x1a, 0x12, 0x06, 0x0c, 0x69, 0x40, 0x0c, 0x07, 0x00, 
  0x15, 0x49, 0x3e, 0x54, 0x33, 0x7f, 0x06, 0x40, 0x52, 0x56, 0x17, 0x45, 
  0x5b, 0x4b, 0x2f, 0x29, 0x29, 0x5a, 0x5b, 0x19, 0x4e, 0x57, 0x45, 0x12, 
  0x4b, 0x58, 0x21, 0x2c, 0x51, 0x41, 0x16, 0x2a, 0x2d, 0x5d, 0x36, 0x48, 
  0x3b, 0x1d, 0x0d, 0x2c, 0x24, 0x4b, 0x4a, 0x66, 0x36, 0x5c, 0x21, 0x18, 
  0x57, 0x4f, 0x65, 0x34, 0x52, 0x57, 0x1f, 0x53, 0x19, 0x2a, 0x4d, 0x43, 
  0x14, 0x5f, 0x1b, 0x0f, 0x4f, 0x44, 0x3c, 0x42, 0xec, 0xe0, 0x21, 0x08, 
  0xd7, 0x39, 0xf0, 0xda, 0x0c, 0x53, 0x0a, 0xf4, 0x3d, 0x2b, 0x5c, 0x23, 
  0xfd, 0x31, 0xfb, 0x23, 0xd7, 0xea, 0x09, 0x98, 0x08, 0xec, 0x54, 0xdf, 
  0x1b, 0xb9, 0x39, 0xf8, 0x4e, 0xfb, 0x33, 0x78, 0xf8, 0x09, 0xf6, 0xfa, 
  0x44, 0xf7, 0x32, 0x1a, 0xe8, 0x66, 0xe1, 0xf8, 0x20, 0xd8, 0x81, 0xc6, 
  0x21, 0x0c, 0xa5, 0xfb, 0xc2, 0x8b, 0xc7, 0x30, 0xf4, 0x45, 0x19, 0x2e, 
  0x4f, 0x28, 0x2f, 0x34, 0x55, 0x45, 0xe3, 0x14, 0x47, 0x4b, 0x11, 0x26, 
  0x4c, 0x2b, 0x7f, 0x1c, 0x27, 0x4a, 0xdb, 0x3b, 0x28, 0x62, 0x3a, 0x2c, 
  0x3e, 0x19, 0x5a, 0xf7, 0x36, 0x32, 0x32, 0x40, 0x48, 0x39, 0x39, 0x39, 
  0x32, 0x43, 0x08, 0xf9, 0xff, 0x48, 0x22, 0x11, 0x61, 0x4e, 0x0d, 0x44, 
  0x2b, 0x31, 0x3a, 0x55, 0x2f, 0x6d, 0x68, 0x49, 0x20, 0x50, 0x34, 0x29, 
  0x1f, 0x30, 0x70, 0x18, 0xb6, 0xcf, 0x32, 0x66, 0x91, 0x83, 0xc4, 0xda, 
  0x93, 0xd6, 0xb1, 0x14, 0x0c, 0xbc, 0xcd, 0xa4, 0x03, 0xbe, 0x11, 0xb0, 
  0xa3, 0x35, 0xf0, 0xd1, 0x8b, 0x38, 0xc8, 0xd4, 0x54, 0xf0, 0x07, 0xce, 
  0x49, 0x87, 0x1d, 0xf4, 0xd6, 0x17, 0x92, 0x2b, 0x70, 0x93, 0xab, 0x81, 
  0x45, 0x1b, 0xf5, 0xf5, 0x59, 0x81, 0x28, 0x29, 0x49, 0x91, 0xc4, 0x8f, 
  0xd0, 0xff, 0x50, 0xd5, 0x60, 0xc6, 0x1e, 0x85, 0x3f, 0xbe, 0x27, 0x43, 
  0x4a, 0xba, 0x4f, 0xf8, 0xf0, 0x53, 0xd4, 0x1e, 0xce, 0xc9, 0x25, 0xfb, 
  0x02, 0x99, 0x9e, 0xe9, 0x0c, 0x81, 0xeb, 0xf4, 0xf5, 0x16, 0x03, 0xfc, 
  0xf8, 0x23, 0x43, 0xb9, 0x0f, 0xda, 0xd5, 0xb9, 0x4e, 0x35, 0xc3, 0xd6, 
  0xd4, 0xbb, 0x9a, 0x49, 0xe5, 0xee, 0x23, 0xed, 0x0f, 0x96, 0x3e, 0x24, 
  0xa1, 0xc9, 0xe6, 0x44, 0x9e, 0xf7, 0x57, 0x93, 0xef, 0xd4, 0xe9, 0x27, 
  0x4b, 0xa3, 0xb5, 0x57, 0x9f, 0x04, 0xca, 0x52, 0x2c, 0x45, 0xd3, 0x62, 
  0x06, 0xe3, 0x88, 0xd2, 0x8b, 0xc8, 0xc5, 0x4e, 0x57, 0x0e, 0xa2, 0xcc, 
  0xa8, 0x42, 0x52, 0x89, 0x26, 0xa6, 0x5f, 0x5a, 0xa2, 0xc2, 0xf9, 0xef, 
  0x3e, 0xda, 0xd2, 0x14, 0x9a, 0xcc, 0xa9, 0x85, 0xfc, 0x89, 0x5d, 0xe7, 
  0x90, 0x3f, 0x9c, 0xcd, 0x14, 0x87, 0x10, 0x69, 0x0b, 0x41, 0xfd, 0x81, 
  0x13, 0xab, 0x21, 0xe6, 0x41, 0x3a, 0x5a, 0x3d, 0x18, 0x42, 0xed, 0x6d, 
  0x46, 0x46, 0x64, 0x48, 0x59, 0x52, 0x5f, 0x68, 0x3e, 0x41, 0x67, 0x2a, 
  0x3c, 0x54, 0x45, 0x6e, 0x60, 0x44, 0x01, 0x77, 0x0b, 0x1f, 0x1f, 0x62, 
  0x35, 0x35, 0x40, 0x38, 0x63, 0x1d, 0x40, 0x3c, 0x22, 0x54, 0x35, 0x2e, 
  0x35, 0x2d, 0x3a, 0x36, 0x46, 0x47, 0x52, 0x68, 0x53, 0x31, 0x31, 0x4c, 
  0x6d, 0x7f, 0x36, 0x31, 0x1e, 0x5b, 0x13, 0x36, 0x55, 0x75, 0x10, 0x3b, 
  0x31, 0x1a, 0x1b, 0x2a, 0x19, 0x57, 0x4e, 0x15, 0x3b, 0x5c, 0x32, 0x28, 
  0x1c, 0x58, 0x65, 0x16, 0x4b, 0x1e, 0x3b, 0x6a, 0x3b, 0x4b, 0x49, 0x52, 
  0x0c, 0x49, 0x5d, 0x32, 0x3b, 0x68, 0x0e, 0x69, 0x15, 0x67, 0x38, 0x5b, 
  0x0e, 0x58, 0x12, 0x2b, 0x4e, 0x33, 0x1d, 0x4a, 0x0a, 0x49, 0x35, 0x44, 
  0x17, 0x1f, 0x7f, 0x79, 0x50, 0x70, 0x1c, 0x50, 0x28, 0x5c, 0x26, 0x5e, 
  0x08, 0xa0, 0x01, 0xbc, 0xa6, 0xe6, 0x2b, 0xdc, 0x14, 0x81, 0x03, 0x1b, 
  0xb3, 0xf5, 0x35, 0xe9, 0xe1, 0x4c, 0x42, 0x8b, 0xdb, 0x0e, 0x40, 0xd0, 
  0x1c, 0x8d, 0xd9, 0x33, 0x26, 0x46, 0xaa, 0xb5, 0x36, 0xe5, 0x20, 0x8d, 
  0x90, 0xcb, 0x4c, 0xef, 0xdc, 0xca, 0x45, 0xb8, 0x51, 0x28, 0x0b, 0xa7, 
  0x29, 0x20, 0x13, 0xed, 0xb6, 0xd1, 0xf4, 0x28, 0xa9, 0xd7, 0x22, 0x48, 
  0x54, 0x47, 0xe3, 0x9b, 0x60, 0x44, 0x33, 0x0f, 0x51, 0x41, 0xe2, 0x19, 
  0x0f, 0x64, 0x32, 0xff, 0x34, 0xfe, 0x69, 0x11, 0x6d, 0xfd, 0x2f, 0x4f, 
  0x2b, 0x6a, 0x2c, 0x4c, 0x4c, 0x32, 0x37, 0x26, 0x09, 0x2f, 0x39, 0x39, 
  0x35, 0x5e, 0x3e, 0x26, 0xf2, 0x1e, 0x3b, 0x2e, 0xee, 0x4d, 0x38, 0x4c, 
  0x62, 0x40, 0x08, 0x55, 0x39, 0x0c, 0x4c, 0x72, 0x29, 0x5b, 0x7f, 0x67, 
  0x0c, 0x64, 0x65, 0x57, 0xf0, 0x3f, 0x65, 0x2c, 0x49, 0x2c, 0x61, 0x14, 
  0x1e, 0x6f, 0xe9, 0x34, 0x19, 0x7c, 0x5f, 0x17, 0x38, 0x32, 0x56, 0x2a, 
  0x52, 0x15, 0x34, 0x72, 0x40, 0x5c, 0x19, 0x58, 0x65, 0x1f, 0x16, 0x22, 
  0x40, 0x26, 0x53, 0x73, 0x51, 0x27, 0x39, 0x41, 0x50, 0x26, 0x51, 0x5b, 
  0x34, 0x38, 0x5f, 0x3b, 0x2e, 0x19, 0x17, 0x2f, 0x15, 0x3e, 0x2b, 0x57, 
  0x47, 0x28, 0x5a, 0x7f, 0x4a, 0x1b, 0x1a, 0x47, 0x21, 0x5b, 0x27, 0x0b, 
  0x79, 0x36, 0x41, 0x2c, 0x41, 0x41, 0xec, 0x10, 0x5f, 0x35, 0x55, 0x2a, 
  0x6b, 0x7f, 0x61, 0x39, 0x40, 0x16, 0x47, 0x2b, 0x46, 0x39, 0x71, 0x67, 
  0x5d, 0x58, 0x4f, 0x33, 0xff, 0x34, 0x36, 0x68, 0x70, 0x30, 0x35, 0x50, 
  0x36, 0x34, 0x22, 0x65, 0x51, 0x73, 0x61, 0x36, 0x2d, 0x25, 0x1d, 0x1c, 
  0x07, 0x19, 0x71, 0x49, 0x24, 0x53, 0x39, 0x6a, 0x1e, 0x75, 0x16, 0x61, 
  0x6a, 0x3d, 0x47, 0x2f, 0x27, 0x79, 0x2c, 0x25, 0x2c, 0x3b, 0xf9, 0x3b, 
  0x38, 0x33, 0x50, 0x32, 0x29, 0x38, 0x7a, 0x0b, 0x1d, 0x6e, 0x4c, 0x47, 
  0x0c, 0x3e, 0x21, 0x64, 0x3c, 0x76, 0x4c, 0x13, 0x3b, 0x7f, 0x1a, 0x63, 
  0x34, 0x1b, 0x34, 0x32, 0x67, 0x4b, 0x2f, 0x47, 0x54, 0x48, 0x7f, 0x1e, 
  0x73, 0x47, 0x3f, 0x48, 0x3f, 0x75, 0x4c, 0x25, 0x3b, 0x1b, 0x64, 0x6b, 
  0x35, 0x59, 0x14, 0x4e, 0x3d, 0x49, 0x43, 0x23, 0xed, 0x8c, 0x6c, 0x52, 
  0x04, 0x4e, 0x22, 0xc0, 0x83, 0x00, 0xa8, 0x92, 0x94, 0x39, 0xb0, 0x62, 
  0xff, 0xbe, 0xbd, 0x11, 0x4a, 0x8d, 0xa1, 0xf2, 0xca, 0x60, 0xac, 0x1a, 
  0xe7, 0x9c, 0xff, 0xac, 0xbb, 0x16, 0x10, 0xa4, 0x40, 0x43, 0xd9, 0xc8, 
  0xd4, 0x52, 0xb5, 0x8d, 0xcb, 0x34, 0x67, 0xdf, 0xd8, 0x81, 0x02, 0x8e, 
  0x47, 0x92, 0x38, 0xe4, 0xec, 0x48, 0xae, 0xc9, 0x1a, 0x33, 0xa8, 0xe5, 
  0x21, 0x60, 0x3c, 0x4f, 0xfb, 0x05, 0xe7, 0x5a, 0x24, 0x28, 0x79, 0x6a, 
  0x46, 0x33, 0x42, 0x35, 0x1d, 0x0e, 0x46, 0x1c, 0x29, 0x0e, 0x66, 0x6c, 
  0x58, 0x18, 0x2f, 0x71, 0x4b, 0x51, 0x2b, 0x68, 0x6b, 0x4c, 0x36, 0x1d, 
  0x53, 0x40, 0x2c, 0x2e, 0x23, 0x4a, 0x42, 0x0f, 0x4a, 0x12, 0x6a, 0x68, 
  0x3d, 0x4a, 0x7f, 0x30, 0x61, 0x19, 0x61, 0x51, 0x51, 0x60, 0x76, 0x38, 
  0x67, 0x27, 0x26, 0x2f, 0x7f, 0x42, 0x1a, 0x26, 0x55, 0x51, 0xe9, 0x1a, 
  0x77, 0x4c, 0x33, 0x1a, 0x72, 0x41, 0x3f, 0x3d, 0x19, 0x1f, 0x67, 0x1d, 
  0x51, 0x43, 0x68, 0x7f, 0x2d, 0x25, 0x5e, 0x3d, 0x4d, 0x47, 0x1f, 0x58, 
  0x30, 0x68, 0x29, 0x29, 0x30, 0x63, 0x16, 0x6d, 0x52, 0x5e, 0x3e, 0x45, 
  0x29, 0x1c, 0x22, 0x60, 0x62, 0x6b, 0x2a, 0x69, 0x33, 0x6c, 0x7e, 0x62, 
  0x4f, 0x47, 0x31, 0x5c, 0x40, 0x40, 0x3e, 0x2c, 0x92, 0xd9, 0x9f, 0xac, 
  0x19, 0x89, 0x9c, 0x38, 0x21, 0xf2, 0xc8, 0x21, 0x1e, 0x3e, 0xfc, 0x92, 
  0xbb, 0xba, 0xc9, 0xde, 0x82, 0x2f, 0x4f, 0x51, 0xad, 0xcd, 0xda, 0xe9, 
  0x4c, 0x4d, 0x3c, 0x94, 0x06, 0x43, 0xff, 0x45, 0x4f, 0x81, 0x51, 0xe4, 
  0xca, 0x08, 0xf3, 0x4f, 0x8d, 0xf1, 0x14, 0x03, 0xdc, 0x59, 0xd5, 0x1f, 
  0xef, 0x42, 0xb7, 0x3e, 0xff, 0x95, 0xcd, 0x13, 0x0b, 0xe4, 0x08, 0xa5, 
  0x4e, 0x08, 0x42, 0x0b, 0x39, 0x37, 0xea, 0x3c, 0x23, 0x32, 0x06, 0x60, 
  0x49, 0x1d, 0x7f, 0x11, 0x3a, 0x56, 0x35, 0x6e, 0x5a, 0x3c, 0x43, 0x28, 
  0x3c, 0x3c, 0x1b, 0x18, 0x49, 0x12, 0x26, 0x1d, 0x05, 0x46, 0x33, 0x20, 
  0x21, 0x34, 0x33, 0x3d, 0x45, 0x6a, 0x4f, 0x21, 0x62, 0x4c, 0x0d, 0x57, 
  0x29, 0x23, 0x50, 0x5b, 0x01, 0x37, 0x47, 0x3b, 0x06, 0x6e, 0x59, 0x5f, 
  0x0f, 0xff, 0x70, 0x3b, 0x1e, 0x41, 0x26, 0x6b, 0x54, 0x64, 0x0e, 0x58, 
  0x65, 0x3e, 0x6b, 0x50, 0x3b, 0x29, 0x56, 0x6a, 0x48, 0x48, 0x47, 0x5b, 
  0x37, 0x39, 0x27, 0x3d, 0x3b, 0x50, 0x30, 0x3d, 0x3c, 0x6f, 0x09, 0x6d, 
  0x1d, 0x51, 0x36, 0x38, 0x67, 0x47, 0x41, 0x55, 0x39, 0x21, 0x63, 0x4f, 
  0x44, 0x34, 0x38, 0x75, 0x3f, 0x74, 0x7f, 0x46, 0x22, 0x37, 0x27, 0x62, 
  0x5b, 0x3d, 0x20, 0x5b, 0x2d, 0x48, 0x33, 0x40, 0x53, 0x7a, 0x20, 0x46, 
  0x1f, 0x38, 0xf1, 0x39, 0x79, 0x34, 0x43, 0x60, 0x5c, 0x20, 0x17, 0x5a, 
  0x5c, 0x1a, 0x24, 0x31, 0x74, 0x52, 0x4b, 0x2d, 0x60, 0x3d, 0x0b, 0x4f, 
  0x62, 0x3b, 0x27, 0x50, 0x54, 0x51, 0x3b, 0x22, 0x22, 0x28, 0x6c, 0x46, 
  0x60, 0x5e, 0x46, 0x14, 0x0b, 0x40, 0x36, 0x35, 0x02, 0x50, 0x7f, 0x3c, 
  0x1b, 0x14, 0x72, 0x4d, 0x43, 0x4c, 0x6a, 0x39, 0x2a, 0x60, 0x2d, 0xfb, 
  0x2a, 0x7f, 0x56, 0x24, 0x29, 0x3f, 0x00, 0x25, 0x51, 0x42, 0x63, 0x51, 
  0x68, 0x2e, 0x39, 0x48, 0x27, 0x26, 0x5a, 0x5b, 0x3c, 0x6a, 0x4c, 0x2d, 
  0x5d, 0x3d, 0x58, 0x13, 0x31, 0x50, 0x24, 0x5a, 0x24, 0x22, 0x33, 0x28, 
  0x19, 0x28, 0x6b, 0x30, 0x12, 0x30, 0x1a, 0x57, 0x1a, 0x43, 0x57, 0x74, 
  0x3c, 0x2f, 0x77, 0x2d, 0x14, 0x38, 0x34, 0x3b, 0x41, 0x3b, 0x54, 0x24, 
  0x51, 0x29, 0x3a, 0x3c, 0x51, 0x59, 0x60, 0x1e, 0x23, 0x7f, 0xdd, 0x1c, 
  0x3d, 0x2f, 0x1c, 0x2f, 0x47, 0x3e, 0x35, 0x2e, 0x33, 0x57, 0x10, 0x4c, 
  0x0f, 0x43, 0x18, 0x5e, 0x47, 0x3e, 0x34, 0x31, 0x2e, 0x4f, 0x1a, 0x56, 
  0x2b, 0x3f, 0x23, 0x5b, 0x50, 0x34, 0x20, 0x4e, 0x2c, 0x45, 0x3d, 0x3c, 
  0x5d, 0x56, 0x39, 0x45, 0x6a, 0x0d, 0x47, 0x78, 0x0c, 0x5e, 0x2a, 0x73, 
  0x29, 0x6c, 0x26, 0x42, 0x17, 0x20, 0x7a, 0x18, 0xa6, 0xfd, 0xff, 0xff, 
  0x04, 0x00, 0x00, 0x00, 0x00, 0x01, 0x00, 0x00, 0xa5, 0x1e, 0x00, 0x00, 
  0x20, 0xf8, 0xff, 0xff, 0x92, 0xf7, 0xff, 0xff, 0xe5, 0x21, 0x00, 0x00, 
  0x4b, 0xf6, 0xff, 0xff, 0x2f, 0x08, 0x00, 0x00, 0xc2, 0xf7, 0xff, 0xff, 
  0x6e, 0xf7, 0xff, 0xff, 0x02, 0xf8, 0xff, 0xff, 0x9d, 0xf5, 0xff, 0xff, 
  0x44, 0x1c, 0x00, 0x00, 0x5f, 0x22, 0x00, 0x00, 0xa2, 0xf8, 0xff, 0xff, 
  0x9b, 0x20, 0x00, 0x00, 0x1a, 0x1d, 0x00, 0x00, 0x2b, 0x1f, 0x00, 0x00, 
  0xbb, 0x22, 0x00, 0x00, 0x29, 0x1d, 0x00, 0x00, 0x3a, 0x22, 0x00, 0x00, 
  0x37, 0x23, 0x00, 0x00, 0x82, 0xf8, 0xff, 0xff, 0x2f, 0xf9, 0xff, 0xff, 
  0x87, 0x1e, 0x00, 0x00, 0xee, 0xf6, 0xff, 0xff, 0x12, 0x26, 0x00, 0x00, 
  0xc4, 0x1e, 0x00, 0x00, 0x3f, 0xf5, 0xff, 0xff, 0x73, 0x1c, 0x00, 0x00, 
  0xf9, 0x20, 0x00, 0x00, 0x74, 0x22, 0x00, 0x00, 0x99, 0x23, 0x00, 0x00, 
  0xf6, 0x1c, 0x00, 0x00, 0x9d, 0x24, 0x00, 0x00, 0x0e, 0x1e, 0x00, 0x00, 
  0x12, 0x21, 0x00, 0x00, 0x6c, 0x21, 0x00, 0x00, 0x0e, 0x21, 0x00, 0x00, 
  0x7c, 0xf8, 0xff, 0xff, 0xcc, 0x20, 0x00, 0x00, 0xc0, 0x22, 0x00, 0x00, 
  0xac, 0x1d, 0x00, 0x00, 0x24, 0x17, 0x00, 0x00, 0x7e, 0x1c, 0x00, 0x00, 
  0x02, 0xf9, 0xff, 0xff, 0xf5, 0x1b, 0x00, 0x00, 0xa9, 0xfb, 0xff, 0xff, 
  0x47, 0xf7, 0xff, 0xff, 0x11, 0xfa, 0xff, 0xff, 0x9b, 0x1f, 0x00, 0x00, 
  0x53, 0x20, 0x00, 0x00, 0xb5, 0xf6, 0xff, 0xff, 0x86, 0x1e, 0x00, 0x00, 
  0xb5, 0x1f, 0x00, 0x00, 0x39, 0x21, 0x00, 0x00, 0xf8, 0x20, 0x00, 0x00, 
  0x36, 0xf9, 0xff, 0xff, 0x52, 0x21, 0x00, 0x00, 0x42, 0x23, 0x00, 0x00, 
  0x5c, 0xf5, 0xff, 0xff, 0xc5, 0x1c, 0x00, 0x00, 0xd3, 0x1f, 0x00, 0x00, 
  0x06, 0x21, 0x00, 0x00, 0x34, 0x20, 0x00, 0x00, 0xde, 0x1f, 0x00, 0x00, 
  0xb2, 0xfe, 0xff, 0xff, 0x04, 0x00, 0x00, 0x00, 0x40, 0x01, 0x00, 0x00, 
  0x04, 0xea, 0x3a, 0xc4, 0xfc, 0xde, 0xd8, 0xd2, 0x1d, 0x37, 0xea, 0x7f, 
  0x31, 0xda, 0x51, 0xe0, 0xdb, 0x35, 0xfc, 0x03, 0xd4, 0x12, 0x71, 0x00, 
  0x29, 0x15, 0x34, 0x2d, 0xe9, 0x23, 0xed, 0x47, 0xec, 0x18, 0xf9, 0xf0, 
  0x09, 0x41, 0x51, 0xf3, 0xcf, 0x90, 0xec, 0x26, 0x68, 0x03, 0x10, 0xe6, 
  0xf9, 0xef, 0x11, 0x46, 0x4d, 0xfb, 0xdf, 0x3d, 0xfd, 0xf8, 0xcd, 0x72, 
  0xf8, 0xf3, 0x13, 0x54, 0x6d, 0xd9, 0xdc, 0x50, 0xfc, 0xe4, 0xdc, 0xff, 
  0xce, 0xd7, 0x68, 0x40, 0xe9, 0x6a, 0x67, 0x6a, 0x56, 0x61, 0x67, 0x52, 
  0xe7, 0x89, 0x5f, 0xf5, 0x48, 0x6c, 0xe7, 0x6b, 0x4d, 0x74, 0x5d, 0x5f, 
  0x57, 0x76, 0x67, 0x77, 0x52, 0xd5, 0x6f, 0x39, 0x6c, 0x4a, 0x5d, 0x8a, 
  0x42, 0xf8, 0xe3, 0xd7, 0x4c, 0x5e, 0xdc, 0x3e, 0x7f, 0x7e, 0x76, 0xf4, 
  0x43, 0x7d, 0xcd, 0x60, 0x54, 0x54, 0x67, 0x5c, 0xfc, 0xfd, 0x15, 0x12, 
  0x0b, 0x7f, 0x00, 0xe9, 0x14, 0xfa, 0xed, 0x04, 0xe8, 0x09, 0x11, 0x16, 
  0xf0, 0x06, 0xff, 0xec, 0xed, 0xfe, 0x07, 0x06, 0xf6, 0x07, 0xf1, 0x16, 
  0xff, 0x1e, 0x1e, 0x22, 0x04, 0x0b, 0xfd, 0xfc, 0xe6, 0xe8, 0x1f, 0x2b, 
  0xf7, 0xcc, 0xe3, 0xf2, 0xe7, 0xf7, 0x17, 0x00, 0x17, 0xf0, 0xfc, 0xf0, 
  0xee, 0x09, 0xe5, 0x17, 0x1b, 0x03, 0x0f, 0x03, 0x16, 0x1d, 0x07, 0xf4, 
  0x6b, 0x10, 0x5b, 0xed, 0xf8, 0x01, 0x55, 0x06, 0x49, 0x14, 0x45, 0xd0, 
  0x00, 0x09, 0x5a, 0x06, 0x5e, 0x39, 0xc6, 0x3e, 0xe3, 0xa5, 0x54, 0x53, 
  0x37, 0x1c, 0xca, 0x46, 0xa8, 0x42, 0xaa, 0x44, 0x39, 0x08, 0x62, 0xfb, 
  0x59, 0x52, 0xda, 0x16, 0x9e, 0x9a, 0xf4, 0x83, 0xf6, 0x2d, 0xd8, 0x36, 
  0x1f, 0x71, 0x26, 0x7f, 0xeb, 0xf1, 0xd2, 0xef, 0xbd, 0x15, 0x63, 0x6e, 
  0xda, 0x2f, 0xd7, 0xd9, 0x0d, 0xf5, 0xe6, 0xe8, 0x16, 0x16, 0x0b, 0xf6, 
  0x05, 0xf4, 0xdf, 0x16, 0x15, 0x10, 0x25, 0x25, 0x24, 0x25, 0xe2, 0xdb, 
  0x23, 0xe9, 0xf2, 0xf4, 0x2b, 0xf0, 0x14, 0x2a, 0x28, 0x30, 0x13, 0x37, 
  0x15, 0xf4, 0x35, 0xdf, 0x2b, 0x07, 0xfe, 0x37, 0x0c, 0xe4, 0xe4, 0x7f, 
  0x0e, 0xda, 0xf6, 0x00, 0xda, 0xed, 0x10, 0xd7, 0x18, 0x05, 0x2b, 0xe5, 
  0xd4, 0xf5, 0xe7, 0xea, 0xe7, 0xfc, 0xf0, 0xf9, 0x00, 0x00, 0x06, 0x00, 
  0x08, 0x00, 0x04, 0x00, 0x06, 0x00, 0x00, 0x00, 0x04, 0x00, 0x00, 0x00, 
  0x14, 0x00, 0x00, 0x00, 0x5f, 0x01, 0x00, 0x00, 0xed, 0x01, 0x00, 0x00, 
  0x67, 0x00, 0x00, 0x00, 0xd2, 0x01, 0x00, 0x00, 0xc9, 0x00, 0x00, 0x00, 
  0x84, 0xff, 0xff, 0xff, 0x88, 0xff, 0xff, 0xff, 0x0f, 0x00, 0x00, 0x00, 
  0x4d, 0x4c, 0x49, 0x52, 0x20, 0x43, 0x6f, 0x6e, 0x76, 0x65, 0x72, 0x74, 
  0x65, 0x64, 0x2e, 0x00, 0x01, 0x00, 0x00, 0x00, 0x14, 0x00, 0x00, 0x00, 
  0x00, 0x00, 0x0e, 0x00, 0x18, 0x00, 0x14, 0x00, 0x10, 0x00, 0x0c, 0x00, 
  0x08, 0x00, 0x04, 0x00, 0x0e, 0x00, 0x00, 0x00, 0x14, 0x00, 0x00, 0x00, 
  0x1c, 0x00, 0x00, 0x00, 0xdc, 0x00, 0x00, 0x00, 0xe0, 0x00, 0x00, 0x00, 
  0xe4, 0x00, 0x00, 0x00, 0x04, 0x00, 0x00, 0x00, 0x6d, 0x61, 0x69, 0x6e, 
  0x00, 0x00, 0x00, 0x00, 0x03, 0x00, 0x00, 0x00, 0x84, 0x00, 0x00, 0x00, 
  0x3c, 0x00, 0x00, 0x00, 0x04, 0x00, 0x00, 0x00, 0x96, 0xff, 0xff, 0xff, 
  0x14, 0x00, 0x00, 0x00, 0x00, 0x00, 0x00, 0x08, 0x10, 0x00, 0x00, 0x00, 
  0x14, 0x00, 0x00, 0x00, 0x04, 0x00, 0x04, 0x00, 0x04, 0x00, 0x00, 0x00, 
  0x01, 0x00, 0x00, 0x00, 0x09, 0x00, 0x00, 0x00, 0x03, 0x00, 0x00, 0x00, 
  0x08, 0x00, 0x00, 0x00, 0x02, 0x00, 0x00, 0x00, 0x01, 0x00, 0x00, 0x00, 
  0xca, 0xff, 0xff, 0xff, 0x10, 0x00, 0x00, 0x00, 0x00, 0x00, 0x00, 0x08, 
  0x10, 0x00, 0x00, 0x00, 0x14, 0x00, 0x00, 0x00, 0xba, 0xff, 0xff, 0xff, 
  0x00, 0x00, 0x00, 0x01, 0x01, 0x00, 0x00, 0x00, 0x08, 0x00, 0x00, 0x00, 
  0x03, 0x00, 0x00, 0x00, 0x07, 0x00, 0x00, 0x00, 0x04, 0x00, 0x00, 0x00, 
  0x03, 0x00, 0x00, 0x00, 0x00, 0x00, 0x0e, 0x00, 0x16, 0x00, 0x00, 0x00, 
  0x10, 0x00, 0x0c, 0x00, 0x0b, 0x00, 0x04, 0x00, 0x0e, 0x00, 0x00, 0x00, 
  0x18, 0x00, 0x00, 0x00, 0x00, 0x00, 0x00, 0x08, 0x18, 0x00, 0x00, 0x00, 
  0x1c, 0x00, 0x00, 0x00, 0x00, 0x00, 0x06, 0x00, 0x08, 0x00, 0x07, 0x00, 
  0x06, 0x00, 0x00, 0x00, 0x00, 0x00, 0x00, 0x01, 0x01, 0x00, 0x00, 0x00, 
  0x07, 0x00, 0x00, 0x00, 0x03, 0x00, 0x00, 0x00, 0x00, 0x00, 0x00, 0x00, 
  0x06, 0x00, 0x00, 0x00, 0x05, 0x00, 0x00, 0x00, 0x01, 0x00, 0x00, 0x00, 
  0x09, 0x00, 0x00, 0x00, 0x01, 0x00, 0x00, 0x00, 0x00, 0x00, 0x00, 0x00, 
  0x0a, 0x00, 0x00, 0x00, 0xbc, 0x10, 0x00, 0x00, 0x14, 0x10, 0x00, 0x00, 
  0x68, 0x0f, 0x00, 0x00, 0x14, 0x0c, 0x00, 0x00, 0xb8, 0x08, 0x00, 0x00, 
  0x64, 0x05, 0x00, 0x00, 0x08, 0x02, 0x00, 0x00, 0x44, 0x01, 0x00, 0x00, 
  0x80, 0x00, 0x00, 0x00, 0x04, 0x00, 0x00, 0x00, 0x82, 0xef, 0xff, 0xff, 
  0x00, 0x00, 0x00, 0x01, 0x18, 0x00, 0x00, 0x00, 0x20, 0x00, 0x00, 0x00, 
  0x3c, 0x00, 0x00, 0x00, 0x0a, 0x00, 0x00, 0x00, 0x00, 0x00, 0x00, 0x09, 
  0x50, 0x00, 0x00, 0x00, 0x02, 0x00, 0x00, 0x00, 0xff, 0xff, 0xff, 0xff, 
  0x05, 0x00, 0x00, 0x00, 0x6c, 0xef, 0xff, 0xff, 0x08, 0x00, 0x00, 0x00, 
  0x10, 0x00, 0x00, 0x00, 0x01, 0x00, 0x00, 0x00, 0x80, 0xff, 0xff, 0xff, 
  0xff, 0xff, 0xff, 0xff, 0x01, 0x00, 0x00, 0x00, 0x0b, 0xed, 0x80, 0x3f, 
  0x1b, 0x00, 0x00, 0x00, 0x53, 0x74, 0x61, 0x74, 0x65, 0x66, 0x75, 0x6c, 
  0x50, 0x61, 0x72, 0x74, 0x69, 0x74, 0x69, 0x6f, 0x6e, 0x65, 0x64, 0x43, 
  0x61, 0x6c, 0x6c, 0x5f, 0x31, 0x3a, 0x30, 0x00, 0x02, 0x00, 0x00, 0x00, 
  0x01, 0x00, 0x00, 0x00, 0x05, 0x00, 0x00, 0x00, 0xfa, 0xef, 0xff, 0xff, 
  0x00, 0x00, 0x00, 0x01, 0x18, 0x00, 0x00, 0x00, 0x20, 0x00, 0x00, 0x00, 
  0x3c, 0x00, 0x00, 0x00, 0x09, 0x00, 0x00, 0x00, 0x00, 0x00, 0x00, 0x09, 
  0x98, 0x00, 0x00, 0x00, 0x02, 0x00, 0x00, 0x00, 0xff, 0xff, 0xff, 0xff, 
  0x40, 0x00, 0x00, 0x00, 0xe4, 0xef, 0xff, 0xff, 0x08, 0x00, 0x00, 0x00, 
  0x10, 0x00, 0x00, 0x00, 0x01, 0x00, 0x00, 0x00, 0x80, 0xff, 0xff, 0xff, 
  0xff, 0xff, 0xff, 0xff, 0x01, 0x00, 0x00, 0x00, 0xd1, 0x1c, 0xbb, 0x3d, 
  0x61, 0x00, 0x00, 0x00, 0x66, 0x75, 0x6e, 0x63, 0x74, 0x69, 0x6f, 0x6e, 
  0x61, 0x6c, 0x5f, 0x38, 0x5f, 0x31, 0x2f, 0x64, 0x65, 0x6e, 0x73, 0x65, 
  0x5f, 0x32, 0x35, 0x5f, 0x31, 0x2f, 0x4d, 0x61, 0x74, 0x4d, 0x75, 0x6c, 
  0x3b, 0x66, 0x75, 0x6e, 0x63, 0x74, 0x69, 0x6f, 0x6e, 0x61, 0x6c, 0x5f, 
  0x38, 0x5f, 0x31, 0x2f, 0x64, 0x65, 0x6e, 0x73, 0x65, 0x5f, 0x32, 0x35, 
  0x5f, 0x31, 0x2f, 0x52, 0x65, 0x6c, 0x75, 0x3b, 0x66, 0x75, 0x6e, 0x63, 
  0x74, 0x69, 0x6f, 0x6e, 0x61, 0x6c, 0x5f, 0x38, 0x5f, 0x31, 0x2f, 0x64, 
  0x65, 0x6e, 0x73, 0x65, 0x5f, 0x32, 0x35, 0x5f, 0x31, 0x2f, 0x42, 0x69, 
  0x61, 0x73, 0x41, 0x64, 0x64, 0x00, 0x00, 0x00, 0x02, 0x00, 0x00, 0x00, 
  0x01, 0x00, 0x00, 0x00, 0x40, 0x00, 0x00, 0x00, 0xba, 0xf0, 0xff, 0xff, 
  0x00, 0x00, 0x00, 0x01, 0x18, 0x00, 0x00, 0x00, 0x20, 0x00, 0x00, 0x00, 
  0x3c, 0x00, 0x00, 0x00, 0x08, 0x00, 0x00, 0x00, 0x00, 0x00, 0x00, 0x09, 
  0x98, 0x00, 0x00, 0x00, 0x02, 0x00, 0x00, 0x00, 0xff, 0xff, 0xff, 0xff, 
  0x40, 0x00, 0x00, 0x00, 0xa4, 0xf0, 0xff, 0xff, 0x08, 0x00, 0x00, 0x00, 
  0x10, 0x00, 0x00, 0x00, 0x01, 0x00, 0x00, 0x00, 0x80, 0xff, 0xff, 0xff, 
  0xff, 0xff, 0xff, 0xff, 0x01, 0x00, 0x00, 0x00, 0x3f, 0x36, 0x0b, 0x3c, 
  0x61, 0x00, 0x00, 0x00, 0x66, 0x75, 0x6e, 0x63, 0x74, 0x69, 0x6f, 0x6e, 
  0x61, 0x6c, 0x5f, 0x38, 0x5f, 0x31, 0x2f, 0x64, 0x65, 0x6e, 0x73, 0x65, 
  0x5f, 0x32, 0x34, 0x5f, 0x31, 0x2f, 0x4d, 0x61, 0x74, 0x4d, 0x75, 0x6c, 
  0x3b, 0x66, 0x75, 0x6e, 0x63, 0x74, 0x69, 0x6f, 0x6e, 0x61, 0x6c, 0x5f, 
  0x38, 0x5f, 0x31, 0x2f, 0x64, 0x65, 0x6e, 0x73, 0x65, 0x5f, 0x32, 0x34, 
  0x5f, 0x31, 0x2f, 0x52, 0x65, 0x6c, 0x75, 0x3b, 0x66, 0x75, 0x6e, 0x63, 
  0x74, 0x69, 0x6f, 0x6e, 0x61, 0x6c, 0x5f, 0x38, 0x5f, 0x31, 0x2f, 0x64, 
  0x65, 0x6e, 0x73, 0x65, 0x5f, 0x32, 0x34, 0x5f, 0x31, 0x2f, 0x42, 0x69, 
  0x61, 0x73, 0x41, 0x64, 0x64, 0x00, 0x00, 0x00, 0x02, 0x00, 0x00, 0x00, 
  0x01, 0x00, 0x00, 0x00, 0x40, 0x00, 0x00, 0x00, 0x1e, 0xf2, 0xff, 0xff, 
  0x00, 0x00, 0x00, 0x01, 0x14, 0x00, 0x00, 0x00, 0x28, 0x03, 0x00, 0x00, 
  0x07, 0x00, 0x00, 0x00, 0x00, 0x00, 0x00, 0x09, 0x34, 0x03, 0x00, 0x00, 
  0x54, 0xf1, 0xff, 0xff, 0x08, 0x00, 0x00, 0x00, 0x0c, 0x02, 0x00, 0x00, 
  0x40, 0x00, 0x00, 0x00, 0x00, 0x00, 0x00, 0x00, 0x00, 0x00, 0x00, 0x00, 
  0x00, 0x00, 0x00, 0x00, 0x00, 0x00, 0x00, 0x00, 0x00, 0x00, 0x00, 0x00, 
  0x00, 0x00, 0x00, 0x00, 0x00, 0x00, 0x00, 0x00, 0x00, 0x00, 0x00, 0x00, 
  0x00, 0x00, 0x00, 0x00, 0x00, 0x00, 0x00, 0x00, 0x00, 0x00, 0x00, 0x00, 
  0x00, 0x00, 0x00, 0x00, 0x00, 0x00, 0x00, 0x00, 0x00, 0x00, 0x00, 0x00, 
  0x00, 0x00, 0x00, 0x00, 0x00, 0x00, 0x00, 0x00, 0x00, 0x00, 0x00, 0x00, 
  0x00, 0x00, 0x00, 0x00, 0x00, 0x00, 0x00, 0x00, 0x00, 0x00, 0x00, 0x00, 
  0x00, 0x00, 0x00, 0x00, 0x00, 0x00, 0x00, 0x00, 0x00, 0x00, 0x00, 0x00, 
  0x00, 0x00, 0x00, 0x00, 0x00, 0x00, 0x00, 0x00, 0x00, 0x00, 0x00, 0x00, 
  0x00, 0x00, 0x00, 0x00, 0x00, 0x00, 0x00, 0x00, 0x00, 0x00, 0x00, 0x00, 
  0x00, 0x00, 0x00, 0x00, 0x00, 0x00, 0x00, 0x00, 0x00, 0x00, 0x00, 0x00, 
  0x00, 0x00, 0x00, 0x00, 0x00, 0x00, 0x00, 0x00, 0x00, 0x00, 0x00, 0x00, 
  0x00, 0x00, 0x00, 0x00, 0x00, 0x00, 0x00, 0x00, 0x00, 0x00, 0x00, 0x00, 
  0x00, 0x00, 0x00, 0x00, 0x00, 0x00, 0x00, 0x00, 0x00, 0x00, 0x00, 0x00, 
  0x00, 0x00, 0x00, 0x00, 0x00, 0x00, 0x00, 0x00, 0x00, 0x00, 0x00, 0x00, 
  0x00, 0x00, 0x00, 0x00, 0x00, 0x00, 0x00, 0x00, 0x00, 0x00, 0x00, 0x00, 
  0x00, 0x00, 0x00, 0x00, 0x00, 0x00, 0x00, 0x00, 0x00, 0x00, 0x00, 0x00, 
  0x00, 0x00, 0x00, 0x00, 0x00, 0x00, 0x00, 0x00, 0x00, 0x00, 0x00, 0x00, 
  0x00, 0x00, 0x00, 0x00, 0x00, 0x00, 0x00, 0x00, 0x00, 0x00, 0x00, 0x00, 
  0x00, 0x00, 0x00, 0x00, 0x00, 0x00, 0x00, 0x00, 0x00, 0x00, 0x00, 0x00, 
  0x00, 0x00, 0x00, 0x00, 0x00, 0x00, 0x00, 0x00, 0x00, 0x00, 0x00, 0x00, 
  0x00, 0x00, 0x00, 0x00, 0x00, 0x00, 0x00, 0x00, 0x00, 0x00, 0x00, 0x00, 
  0x00, 0x00, 0x00, 0x00, 0x00, 0x00, 0x00, 0x00, 0x00, 0x00, 0x00, 0x00, 
  0x00, 0x00, 0x00, 0x00, 0x00, 0x00, 0x00, 0x00, 0x00, 0x00, 0x00, 0x00, 
  0x00, 0x00, 0x00, 0x00, 0x00, 0x00, 0x00, 0x00, 0x00, 0x00, 0x00, 0x00, 
  0x00, 0x00, 0x00, 0x00, 0x00, 0x00, 0x00, 0x00, 0x00, 0x00, 0x00, 0x00, 
  0x00, 0x00, 0x00, 0x00, 0x00, 0x00, 0x00, 0x00, 0x00, 0x00, 0x00, 0x00, 
  0x00, 0x00, 0x00, 0x00, 0x00, 0x00, 0x00, 0x00, 0x00, 0x00, 0x00, 0x00, 
  0x00, 0x00, 0x00, 0x00, 0x00, 0x00, 0x00, 0x00, 0x00, 0x00, 0x00, 0x00, 
  0x00, 0x00, 0x00, 0x00, 0x00, 0x00, 0x00, 0x00, 0x00, 0x00, 0x00, 0x00, 
  0x00, 0x00, 0x00, 0x00, 0x00, 0x00, 0x00, 0x00, 0x00, 0x00, 0x00, 0x00, 
  0x00, 0x00, 0x00, 0x00, 0x00, 0x00, 0x00, 0x00, 0x00, 0x00, 0x00, 0x00, 
  0x00, 0x00, 0x00, 0x00, 0x00, 0x00, 0x00, 0x00, 0x00, 0x00, 0x00, 0x00, 
  0x00, 0x00, 0x00, 0x00, 0x00, 0x00, 0x00, 0x00, 0x00, 0x00, 0x00, 0x00, 
  0x00, 0x00, 0x00, 0x00, 0x00, 0x00, 0x00, 0x00, 0x00, 0x00, 0x00, 0x00, 
  0x00, 0x00, 0x00, 0x00, 0x00, 0x00, 0x00, 0x00, 0x00, 0x00, 0x00, 0x00, 
  0x00, 0x00, 0x00, 0x00, 0x00, 0x00, 0x00, 0x00, 0x00, 0x00, 0x00, 0x00, 
  0x00, 0x00, 0x00, 0x00, 0x00, 0x00, 0x00, 0x00, 0x00, 0x00, 0x00, 0x00, 
  0x00, 0x00, 0x00, 0x00, 0x00, 0x00, 0x00, 0x00, 0x00, 0x00, 0x00, 0x00, 
  0x00, 0x00, 0x00, 0x00, 0x00, 0x00, 0x00, 0x00, 0x00, 0x00, 0x00, 0x00, 
  0x00, 0x00, 0x00, 0x00, 0x00, 0x00, 0x00, 0x00, 0x00, 0x00, 0x00, 0x00, 
  0x00, 0x00, 0x00, 0x00, 0x00, 0x00, 0x00, 0x00, 0x00, 0x00, 0x00, 0x00, 
  0x00, 0x00, 0x00, 0x00, 0x00, 0x00, 0x00, 0x00, 0x00, 0x00, 0x00, 0x00, 
  0x00, 0x00, 0x00, 0x00, 0x40, 0x00, 0x00, 0x00, 0xff, 0x54, 0x0c, 0x3b, 
  0x84, 0xae, 0xbe, 0x3a, 0x61, 0x81, 0xfd, 0x3a, 0xf6, 0xf1, 0xea, 0x3a, 
  0x73, 0x57, 0x32, 0x3b, 0x62, 0x69, 0x03, 0x3b, 0x62, 0x2d, 0x4d, 0x38, 
  0x6a, 0x94, 0x32, 0x3b, 0x49, 0xa7, 0xaa, 0x3a, 0x4f, 0x92, 0xf9, 0x3a, 
  0xaa, 0xc8, 0xbf, 0x3a, 0xb3, 0x2f, 0x17, 0x3b, 0x0c, 0x7a, 0xa0, 0x3a, 
  0xc1, 0xd4, 0xd3, 0x3a, 0xf2, 0x15, 0x0d, 0x3b, 0xd9, 0x99, 0x48, 0x3b, 
  0xfd, 0x89, 0xf2, 0x3a, 0x93, 0x98, 0x12, 0x3b, 0x42, 0x6e, 0x17, 0x3b, 
  0x3a, 0xc4, 0xdf, 0x3a, 0x28, 0x99, 0x12, 0x3b, 0x6e, 0x85, 0x02, 0x3b, 
  0xae, 0x42, 0x1e, 0x3b, 0x79, 0x17, 0x02, 0x3b, 0x19, 0xaf, 0x03, 0x3b, 
  0xef, 0xbe, 0x4e, 0x3b, 0x05, 0x21, 0x13, 0x3b, 0xe6, 0x18, 0xd1, 0x3a, 
  0x1e, 0x58, 0x0f, 0x3b, 0xfe, 0x1a, 0x06, 0x3b, 0xe1, 0xfe, 0x41, 0x3b, 
  0x61, 0x84, 0xe7, 0x3a, 0xf5, 0xdd, 0x13, 0x3b, 0x8e, 0x31, 0xdc, 0x3a, 
  0xf0, 0xf8, 0x1d, 0x3b, 0x37, 0xde, 0x33, 0x3b, 0x2e, 0x71, 0xf6, 0x3a, 
  0xe7, 0x2a, 0x20, 0x3b, 0xd5, 0x85, 0xfc, 0x3a, 0xa6, 0xc3, 0xe1, 0x3a, 
  0x21, 0xe1, 0x03, 0x3b, 0xbd, 0x8c, 0x1b, 0x3b, 0x62, 0xca, 0x1d, 0x3b, 
  0x3c, 0x4f, 0xe6, 0x3a, 0x90, 0xd2, 0x09, 0x3b, 0xb7, 0x05, 0x1b, 0x3b, 
  0x09, 0x78, 0x23, 0x3b, 0xf8, 0xba, 0xb2, 0x3a, 0x62, 0x6b, 0x01, 0x3b, 
  0xfb, 0xa4, 0x02, 0x3b, 0x42, 0xae, 0x98, 0x3a, 0xe6, 0x0a, 0x01, 0x3b, 
  0x86, 0x2c, 0x24, 0x3b, 0x99, 0xf3, 0x11, 0x3b, 0x5b, 0xe5, 0xb8, 0x3a, 
  0xe6, 0x14, 0x1f, 0x3b, 0x89, 0x47, 0x24, 0x3b, 0x74, 0xfb, 0xd6, 0x3a, 
  0xfe, 0x28, 0x01, 0x3b, 0xa1, 0xea, 0x17, 0x3b, 0x21, 0x59, 0x0a, 0x3b, 
  0x9a, 0x6a, 0xe2, 0x3a, 0x59, 0xc3, 0xfd, 0x3a, 0x4f, 0xe3, 0x2c, 0x3b, 
  0x12, 0x00, 0x00, 0x00, 0x74, 0x66, 0x6c, 0x2e, 0x70, 0x73, 0x65, 0x75, 
  0x64, 0x6f, 0x5f, 0x71, 0x63, 0x6f, 0x6e, 0x73, 0x74, 0x35, 0x00, 0x00, 
  0x02, 0x00, 0x00, 0x00, 0x40, 0x00, 0x00, 0x00, 0x04, 0x00, 0x00, 0x00, 
  0x76, 0xf5, 0xff, 0xff, 0x00, 0x00, 0x00, 0x01, 0x14, 0x00, 0x00, 0x00, 
  0x24, 0x03, 0x00, 0x00, 0x06, 0x00, 0x00, 0x00, 0x00, 0x00, 0x00, 0x02, 
  0x30, 0x03, 0x00, 0x00, 0xac, 0xf4, 0xff, 0xff, 0x08, 0x00, 0x00, 0x00, 
  0x08, 0x02, 0x00, 0x00, 0x40, 0x00, 0x00, 0x00, 0x00, 0x00, 0x00, 0x00, 
  0x00, 0x00, 0x00, 0x00, 0x00, 0x00, 0x00, 0x00, 0x00, 0x00, 0x00, 0x00, 
  0x00, 0x00, 0x00, 0x00, 0x00, 0x00, 0x00, 0x00, 0x00, 0x00, 0x00, 0x00, 
  0x00, 0x00, 0x00, 0x00, 0x00, 0x00, 0x00, 0x00, 0x00, 0x00, 0x00, 0x00, 
  0x00, 0x00, 0x00, 0x00, 0x00, 0x00, 0x00, 0x00, 0x00, 0x00, 0x00, 0x00, 
  0x00, 0x00, 0x00, 0x00, 0x00, 0x00, 0x00, 0x00, 0x00, 0x00, 0x00, 0x00, 
  0x00, 0x00, 0x00, 0x00, 0x00, 0x00, 0x00, 0x00, 0x00, 0x00, 0x00, 0x00, 
  0x00, 0x00, 0x00, 0x00, 0x00, 0x00, 0x00, 0x00, 0x00, 0x00, 0x00, 0x00, 
  0x00, 0x00, 0x00, 0x00, 0x00, 0x00, 0x00, 0x00, 0x00, 0x00, 0x00, 0x00, 
  0x00, 0x00, 0x00, 0x00, 0x00, 0x00, 0x00, 0x00, 0x00, 0x00, 0x00, 0x00, 
  0x00, 0x00, 0x00, 0x00, 0x00, 0x00, 0x00, 0x00, 0x00, 0x00, 0x00, 0x00, 
  0x00, 0x00, 0x00, 0x00, 0x00, 0x00, 0x00, 0x00, 0x00, 0x00, 0x00, 0x00, 
  0x00, 0x00, 0x00, 0x00, 0x00, 0x00, 0x00, 0x00, 0x00, 0x00, 0x00, 0x00, 
  0x00, 0x00, 0x00, 0x00, 0x00, 0x00, 0x00, 0x00, 0x00, 0x00, 0x00, 0x00, 
  0x00, 0x00, 0x00, 0x00, 0x00, 0x00, 0x00, 0x00, 0x00, 0x00, 0x00, 0x00, 
  0x00, 0x00, 0x00, 0x00, 0x00, 0x00, 0x00, 0x00, 0x00, 0x00, 0x00, 0x00, 
  0x00, 0x00, 0x00, 0x00, 0x00, 0x00, 0x00, 0x00, 0x00, 0x00, 0x00, 0x00, 
  0x00, 0x00, 0x00, 0x00, 0x00, 0x00, 0x00, 0x00, 0x00, 0x00, 0x00, 0x00, 
  0x00, 0x00, 0x00, 0x00, 0x00, 0x00, 0x00, 0x00, 0x00, 0x00, 0x00, 0x00, 
  0x00, 0x00, 0x00, 0x00, 0x00, 0x00, 0x00, 0x00, 0x00, 0x00, 0x00, 0x00, 
  0x00, 0x00, 0x00, 0x00, 0x00, 0x00, 0x00, 0x00, 0x00, 0x00, 0x00, 0x00, 
  0x00, 0x00, 0x00, 0x00, 0x00, 0x00, 0x00, 0x00, 0x00, 0x00, 0x00, 0x00, 
  0x00, 0x00, 0x00, 0x00, 0x00, 0x00, 0x00, 0x00, 0x00, 0x00, 0x00, 0x00, 
  0x00, 0x00, 0x00, 0x00, 0x00, 0x00, 0x00, 0x00, 0x00, 0x00, 0x00, 0x00, 
  0x00, 0x00, 0x00, 0x00, 0x00, 0x00, 0x00, 0x00, 0x00, 0x00, 0x00, 0x00, 
  0x00, 0x00, 0x00, 0x00, 0x00, 0x00, 0x00, 0x00, 0x00, 0x00, 0x00, 0x00, 
  0x00, 0x00, 0x00, 0x00, 0x00, 0x00, 0x00, 0x00, 0x00, 0x00, 0x00, 0x00, 
  0x00, 0x00, 0x00, 0x00, 0x00, 0x00, 0x00, 0x00, 0x00, 0x00, 0x00, 0x00, 
  0x00, 0x00, 0x00, 0x00, 0x00, 0x00, 0x00, 0x00, 0x00, 0x00, 0x00, 0x00, 
  0x00, 0x00, 0x00, 0x00, 0x00, 0x00, 0x00, 0x00, 0x00, 0x00, 0x00, 0x00, 
  0x00, 0x00, 0x00, 0x00, 0x00, 0x00, 0x00, 0x00, 0x00, 0x00, 0x00, 0x00, 
  0x00, 0x00, 0x00, 0x00, 0x00, 0x00, 0x00, 0x00, 0x00, 0x00, 0x00, 0x00, 
  0x00, 0x00, 0x00, 0x00, 0x00, 0x00, 0x00, 0x00, 0x00, 0x00, 0x00, 0x00, 
  0x00, 0x00, 0x00, 0x00, 0x00, 0x00, 0x00, 0x00, 0x00, 0x00, 0x00, 0x00, 
  0x00, 0x00, 0x00, 0x00, 0x00, 0x00, 0x00, 0x00, 0x00, 0x00, 0x00, 0x00, 
  0x00, 0x00, 0x00, 0x00, 0x00, 0x00, 0x00, 0x00, 0x00, 0x00, 0x00, 0x00, 
  0x00, 0x00, 0x00, 0x00, 0x00, 0x00, 0x00, 0x00, 0x00, 0x00, 0x00, 0x00, 
  0x00, 0x00, 0x00, 0x00, 0x00, 0x00, 0x00, 0x00, 0x00, 0x00, 0x00, 0x00, 
  0x00, 0x00, 0x00, 0x00, 0x00, 0x00, 0x00, 0x00, 0x00, 0x00, 0x00, 0x00, 
  0x00, 0x00, 0x00, 0x00, 0x00, 0x00, 0x00, 0x00, 0x00, 0x00, 0x00, 0x00, 
  0x00, 0x00, 0x00, 0x00, 0x00, 0x00, 0x00, 0x00, 0x00, 0x00, 0x00, 0x00, 
  0x00, 0x00, 0x00, 0x00, 0x00, 0x00, 0x00, 0x00, 0x00, 0x00, 0x00, 0x00, 
  0x00, 0x00, 0x00, 0x00, 0x00, 0x00, 0x00, 0x00, 0x00, 0x00, 0x00, 0x00, 
  0x00, 0x00, 0x00, 0x00, 0x40, 0x00, 0x00, 0x00, 0x71, 0xad, 0xf9, 0x37, 
  0x2f, 0xa1, 0xa9, 0x37, 0x6e, 0x84, 0xe1, 0x37, 0x96, 0x01, 0xd1, 0x37, 
  0xe4, 0xa6, 0x1e, 0x38, 0x75, 0xce, 0xe9, 0x37, 0x5b, 0x86, 0x36, 0x35, 
  0x20, 0xdd, 0x1e, 0x38, 0x05, 0xd0, 0x97, 0x37, 0x8b, 0x04, 0xde, 0x37, 
  0x2e, 0x9c, 0xaa, 0x37, 0xa5, 0x7e, 0x06, 0x38, 0x69, 0xc2, 0x8e, 0x37, 
  0xaa, 0x71, 0xbc, 0x37, 0xbd, 0x04, 0xfb, 0x37, 0x29, 0x74, 0x32, 0x38, 
  0xfc, 0xc2, 0xd7, 0x37, 0x42, 0x69, 0x02, 0x38, 0x4c, 0xb6, 0x06, 0x38, 
  0xcd, 0x0f, 0xc7, 0x37, 0xc7, 0x69, 0x02, 0x38, 0xe3, 0x38, 0xe8, 0x37, 
  0xaf, 0xc9, 0x0c, 0x38, 0x40, 0x75, 0xe7, 0x37, 0x7f, 0x4a, 0xea, 0x37, 
  0x92, 0xeb, 0x37, 0x38, 0xa4, 0xe2, 0x02, 0x38, 0x14, 0x03, 0xba, 0x37, 
  0x6a, 0x09, 0xff, 0x37, 0x68, 0x99, 0xee, 0x37, 0xe2, 0x93, 0x2c, 0x38, 
  0xe5, 0xf4, 0xcd, 0x37, 0xb8, 0x8a, 0x03, 0x38, 0x1d, 0xe2, 0xc3, 0x37, 
  0x15, 0x88, 0x0c, 0x38, 0x84, 0x02, 0x20, 0x38, 0xdd, 0x3b, 0xdb, 0x37, 
  0x01, 0x7c, 0x0e, 0x38, 0xa7, 0xa4, 0xe0, 0x37, 0xc2, 0xd6, 0xc8, 0x37, 
  0x82, 0xa3, 0xea, 0x37, 0x5b, 0x60, 0x0a, 0x38, 0xab, 0x5e, 0x0c, 0x38, 
  0xe1, 0xe1, 0xcc, 0x37, 0x6e, 0x36, 0xf5, 0x37, 0x3e, 0xe8, 0x09, 0x38, 
  0xd5, 0x6b, 0x11, 0x38, 0x6c, 0xff, 0x9e, 0x37, 0x12, 0x43, 0xe6, 0x37, 
  0x05, 0x71, 0xe8, 0x37, 0xf7, 0xd2, 0x87, 0x37, 0x68, 0x97, 0xe5, 0x37, 
  0x65, 0x0c, 0x12, 0x38, 0x7f, 0xd6, 0x01, 0x38, 0x8d, 0x7b, 0xa4, 0x37, 
  0xb2, 0x84, 0x0d, 0x38, 0x6c, 0x24, 0x12, 0x38, 0x4d, 0x3f, 0xbf, 0x37, 
  0xf3, 0xcc, 0xe5, 0x37, 0xf0, 0x24, 0x07, 0x38, 0xda, 0x25, 0xf6, 0x37, 
  0x48, 0x6b, 0xc9, 0x37, 0x1d, 0xbf, 0xe1, 0x37, 0xe4, 0xcc, 0x19, 0x38, 
  0x12, 0x00, 0x00, 0x00, 0x74, 0x66, 0x6c, 0x2e, 0x70, 0x73, 0x65, 0x75, 
  0x64, 0x6f, 0x5f, 0x71, 0x63, 0x6f, 0x6e, 0x73, 0x74, 0x34, 0x00, 0x00, 
  0x01, 0x00, 0x00, 0x00, 0x40, 0x00, 0x00, 0x00, 0xc6, 0xf8, 0xff, 0xff, 
  0x00, 0x00, 0x00, 0x01, 0x14, 0x00, 0x00, 0x00, 0x28, 0x03, 0x00, 0x00, 
  0x05, 0x00, 0x00, 0x00, 0x00, 0x00, 0x00, 0x09, 0x34, 0x03, 0x00, 0x00, 
  0xfc, 0xf7, 0xff, 0xff, 0x08, 0x00, 0x00, 0x00, 0x0c, 0x02, 0x00, 0x00, 
  0x40, 0x00, 0x00, 0x00, 0x00, 0x00, 0x00, 0x00, 0x00, 0x00, 0x00, 0x00, 
  0x00, 0x00, 0x00, 0x00, 0x00, 0x00, 0x00, 0x00, 0x00, 0x00, 0x00, 0x00, 
  0x00, 0x00, 0x00, 0x00, 0x00, 0x00, 0x00, 0x00, 0x00, 0x00, 0x00, 0x00, 
  0x00, 0x00, 0x00, 0x00, 0x00, 0x00, 0x00, 0x00, 0x00, 0x00, 0x00, 0x00, 
  0x00, 0x00, 0x00, 0x00, 0x00, 0x00, 0x00, 0x00, 0x00, 0x00, 0x00, 0x00, 
  0x00, 0x00, 0x00, 0x00, 0x00, 0x00, 0x00, 0x00, 0x00, 0x00, 0x00, 0x00, 
  0x00, 0x00, 0x00, 0x00, 0x00, 0x00, 0x00, 0x00, 0x00, 0x00, 0x00, 0x00, 
  0x00, 0x00, 0x00, 0x00, 0x00, 0x00, 0x00, 0x00, 0x00, 0x00, 0x00, 0x00, 
  0x00, 0x00, 0x00, 0x00, 0x00, 0x00, 0x00, 0x00, 0x00, 0x00, 0x00, 0x00, 
  0x00, 0x00, 0x00, 0x00, 0x00, 0x00, 0x00, 0x00, 0x00, 0x00, 0x00, 0x00, 
  0x00, 0x00, 0x00, 0x00, 0x00, 0x00, 0x00, 0x00, 0x00, 0x00, 0x00, 0x00, 
  0x00, 0x00, 0x00, 0x00, 0x00, 0x00, 0x00, 0x00, 0x00, 0x00, 0x00, 0x00, 
  0x00, 0x00, 0x00, 0x00, 0x00, 0x00, 0x00, 0x00, 0x00, 0x00, 0x00, 0x00, 
  0x00, 0x00, 0x00, 0x00, 0x00, 0x00, 0x00, 0x00, 0x00, 0x00, 0x00, 0x00, 
  0x00, 0x00, 0x00, 0x00, 0x00, 0x00, 0x00, 0x00, 0x00, 0x00, 0x00, 0x00, 
  0x00, 0x00, 0x00, 0x00, 0x00, 0x00, 0x00, 0x00, 0x00, 0x00, 0x00, 0x00, 
  0x00, 0x00, 0x00, 0x00, 0x00, 0x00, 0x00, 0x00, 0x00, 0x00, 0x00, 0x00, 
  0x00, 0x00, 0x00, 0x00, 0x00, 0x00, 0x00, 0x00, 0x00, 0x00, 0x00, 0x00, 
  0x00, 0x00, 0x00, 0x00, 0x00, 0x00, 0x00, 0x00, 0x00, 0x00, 0x00, 0x00, 
  0x00, 0x00, 0x00, 0x00, 0x00, 0x00, 0x00, 0x00, 0x00, 0x00, 0x00, 0x00, 
  0x00, 0x00, 0x00, 0x00, 0x00, 0x00, 0x00, 0x00, 0x00, 0x00, 0x00, 0x00, 
  0x00, 0x00, 0x00, 0x00, 0x00, 0x00, 0x00, 0x00, 0x00, 0x00, 0x00, 0x00, 
  0x00, 0x00, 0x00, 0x00, 0x00, 0x00, 0x00, 0x00, 0x00, 0x00, 0x00, 0x00, 
  0x00, 0x00, 0x00, 0x00, 0x00, 0x00, 0x00, 0x00, 0x00, 0x00, 0x00, 0x00, 
  0x00, 0x00, 0x00, 0x00, 0x00, 0x00, 0x00, 0x00, 0x00, 0x00, 0x00, 0x00, 
  0x00, 0x00, 0x00, 0x00, 0x00, 0x00, 0x00, 0x00, 0x00, 0x00, 0x00, 0x00, 
  0x00, 0x00, 0x00, 0x00, 0x00, 0x00, 0x00, 0x00, 0x00, 0x00, 0x00, 0x00, 
  0x00, 0x00, 0x00, 0x00, 0x00, 0x00, 0x00, 0x00, 0x00, 0x00, 0x00, 0x00, 
  0x00, 0x00, 0x00, 0x00, 0x00, 0x00, 0x00, 0x00, 0x00, 0x00, 0x00, 0x00, 
  0x00, 0x00, 0x00, 0x00, 0x00, 0x00, 0x00, 0x00, 0x00, 0x00, 0x00, 0x00, 
  0x00, 0x00, 0x00, 0x00, 0x00, 0x00, 0x00, 0x00, 0x00, 0x00, 0x00, 0x00, 
  0x00, 0x00, 0x00, 0x00, 0x00, 0x00, 0x00, 0x00, 0x00, 0x00, 0x00, 0x00, 
  0x00, 0x00, 0x00, 0x00, 0x00, 0x00, 0x00, 0x00, 0x00, 0x00, 0x00, 0x00, 
  0x00, 0x00, 0x00, 0x00, 0x00, 0x00, 0x00, 0x00, 0x00, 0x00, 0x00, 0x00, 
  0x00, 0x00, 0x00, 0x00, 0x00, 0x00, 0x00, 0x00, 0x00, 0x00, 0x00, 0x00, 
  0x00, 0x00, 0x00, 0x00, 0x00, 0x00, 0x00, 0x00, 0x00, 0x00, 0x00, 0x00, 
  0x00, 0x00, 0x00, 0x00, 0x00, 0x00, 0x00, 0x00, 0x00, 0x00, 0x00, 0x00, 
  0x00, 0x00, 0x00, 0x00, 0x00, 0x00, 0x00, 0x00, 0x00, 0x00, 0x00, 0x00, 
  0x00, 0x00, 0x00, 0x00, 0x00, 0x00, 0x00, 0x00, 0x00, 0x00, 0x00, 0x00, 
  0x00, 0x00, 0x00, 0x00, 0x00, 0x00, 0x00, 0x00, 0x00, 0x00, 0x00, 0x00, 
  0x00, 0x00, 0x00, 0x00, 0x00, 0x00, 0x00, 0x00, 0x00, 0x00, 0x00, 0x00, 
  0x00, 0x00, 0x00, 0x00, 0x00, 0x00, 0x00, 0x00, 0x00, 0x00, 0x00, 0x00, 
  0x00, 0x00, 0x00, 0x00, 0x00, 0x00, 0x00, 0x00, 0x00, 0x00, 0x00, 0x00, 
  0x00, 0x00, 0x00, 0x00, 0x40, 0x00, 0x00, 0x00, 0xd3, 0xc4, 0x91, 0x3b, 
  0x2c, 0x4f, 0xfc, 0x3a, 0xee, 0x0a, 0xfb, 0x3a, 0xb9, 0xc9, 0xa2, 0x3b, 
  0x01, 0x4d, 0xf2, 0x3a, 0x75, 0x6d, 0x21, 0x3c, 0x1e, 0xdc, 0x02, 0x3b, 
  0xad, 0x64, 0x01, 0x3b, 0x7b, 0x90, 0xf6, 0x3a, 0x5e, 0x59, 0x03, 0x3b, 
  0x46, 0x43, 0xac, 0x3b, 0xb6, 0xd3, 0xa2, 0x3b, 0xf6, 0xf2, 0xf0, 0x3a, 
  0xf3, 0xa5, 0x8f, 0x3b, 0xd0, 0x37, 0x94, 0x3b, 0x48, 0x15, 0x8f, 0x3b, 
  0xfc, 0x35, 0x96, 0x3b, 0xeb, 0x91, 0x9b, 0x3b, 0xe9, 0xbd, 0x8b, 0x3b, 
  0xf4, 0xfa, 0x95, 0x3b, 0x6c, 0x43, 0xf9, 0x3a, 0x66, 0x04, 0x75, 0x3b, 
  0x72, 0xb4, 0x95, 0x3b, 0x99, 0x58, 0x03, 0x3b, 0x87, 0xf3, 0x98, 0x3b, 
  0x85, 0x12, 0x8d, 0x3b, 0x2e, 0x05, 0x0a, 0x3b, 0x15, 0xf1, 0x92, 0x3b, 
  0x45, 0x13, 0xac, 0x3b, 0x3c, 0x2a, 0x89, 0x3b, 0xb4, 0xde, 0x8f, 0x3b, 
  0x0d, 0xc2, 0x8f, 0x3b, 0x8e, 0x48, 0x91, 0x3b, 0xa1, 0xcf, 0x8c, 0x3b, 
  0x4e, 0x78, 0x84, 0x3b, 0x46, 0xcb, 0x8a, 0x3b, 0xcb, 0xaf, 0x9c, 0x3b, 
  0x21, 0x0c, 0x03, 0x3b, 0x2a, 0x80, 0x93, 0x3b, 0x9d, 0xd8, 0xa9, 0x3b, 
  0x09, 0x72, 0x9e, 0x3b, 0x14, 0x4f, 0xdd, 0x3b, 0x80, 0x2e, 0xb7, 0x3b, 
  0xe0, 0xbf, 0x8b, 0x3b, 0xed, 0x60, 0xbe, 0x3b, 0x2c, 0x07, 0xe8, 0x3a, 
  0x55, 0xc1, 0x03, 0x3b, 0x7e, 0x72, 0xf9, 0x3a, 0x81, 0x85, 0xa4, 0x3b, 
  0xcc, 0x85, 0x9b, 0x3b, 0xd7, 0x99, 0x08, 0x3b, 0x55, 0x6a, 0xb5, 0x3b, 
  0xfa, 0x3d, 0x93, 0x3b, 0xd8, 0x5e, 0x8c, 0x3b, 0xf1, 0x4e, 0x94, 0x3b, 
  0xb5, 0xec, 0xed, 0x3a, 0x73, 0xc3, 0x97, 0x3b, 0x1e, 0xda, 0x86, 0x3b, 
  0xc5, 0x57, 0x04, 0x3b, 0x78, 0x91, 0x9e, 0x3b, 0xf3, 0xb5, 0x9d, 0x3b, 
  0x64, 0x2a, 0x98, 0x3b, 0x20, 0x35, 0x9c, 0x3b, 0x7c, 0xe0, 0x9c, 0x3b, 
  0x12, 0x00, 0x00, 0x00, 0x74, 0x66, 0x6c, 0x2e, 0x70, 0x73, 0x65, 0x75, 
  0x64, 0x6f, 0x5f, 0x71, 0x63, 0x6f, 0x6e, 0x73, 0x74, 0x33, 0x00, 0x00, 
  0x02, 0x00, 0x00, 0x00, 0x40, 0x00, 0x00, 0x00, 0x40, 0x00, 0x00, 0x00, 
  0x1e, 0xfc, 0xff, 0xff, 0x00, 0x00, 0x00, 0x01, 0x14, 0x00, 0x00, 0x00, 
  0x24, 0x03, 0x00, 0x00, 0x04, 0x00, 0x00, 0x00, 0x00, 0x00, 0x00, 0x02, 
  0x30, 0x03, 0x00, 0x00, 0x54, 0xfb, 0xff, 0xff, 0x08, 0x00, 0x00, 0x00, 
  0x08, 0x02, 0x00, 0x00, 0x40, 0x00, 0x00, 0x00, 0x00, 0x00, 0x00, 0x00, 
  0x00, 0x00, 0x00, 0x00, 0x00, 0x00, 0x00, 0x00, 0x00, 0x00, 0x00, 0x00, 
  0x00, 0x00, 0x00, 0x00, 0x00, 0x00, 0x00, 0x00, 0x00, 0x00, 0x00, 0x00, 
  0x00, 0x00, 0x00, 0x00, 0x00, 0x00, 0x00, 0x00, 0x00, 0x00, 0x00, 0x00, 
  0x00, 0x00, 0x00, 0x00, 0x00, 0x00, 0x00, 0x00, 0x00, 0x00, 0x00, 0x00, 
  0x00, 0x00, 0x00, 0x00, 0x00, 0x00, 0x00, 0x00, 0x00, 0x00, 0x00, 0x00, 
  0x00, 0x00, 0x00, 0x00, 0x00, 0x00, 0x00, 0x00, 0x00, 0x00, 0x00, 0x00, 
  0x00, 0x00, 0x00, 0x00, 0x00, 0x00, 0x00, 0x00, 0x00, 0x00, 0x00, 0x00, 
  0x00, 0x00, 0x00, 0x00, 0x00, 0x00, 0x00, 0x00, 0x00, 0x00, 0x00, 0x00, 
  0x00, 0x00, 0x00, 0x00, 0x00, 0x00, 0x00, 0x00, 0x00, 0x00, 0x00, 0x00, 
  0x00, 0x00, 0x00, 0x00, 0x00, 0x00, 0x00, 0x00, 0x00, 0x00, 0x00, 0x00, 
  0x00, 0x00, 0x00, 0x00, 0x00, 0x00, 0x00, 0x00, 0x00, 0x00, 0x00, 0x00, 
  0x00, 0x00, 0x00, 0x00, 0x00, 0x00, 0x00, 0x00, 0x00, 0x00, 0x00, 0x00, 
  0x00, 0x00, 0x00, 0x00, 0x00, 0x00, 0x00, 0x00, 0x00, 0x00, 0x00, 0x00, 
  0x00, 0x00, 0x00, 0x00, 0x00, 0x00, 0x00, 0x00, 0x00, 0x00, 0x00, 0x00, 
  0x00, 0x00, 0x00, 0x00, 0x00, 0x00, 0x00, 0x00, 0x00, 0x00, 0x00, 0x00, 
  0x00, 0x00, 0x00, 0x00, 0x00, 0x00, 0x00, 0x00, 0x00, 0x00, 0x00, 0x00, 
  0x00, 0x00, 0x00, 0x00, 0x00, 0x00, 0x00, 0x00, 0x00, 0x00, 0x00, 0x00, 
  0x00, 0x00, 0x00, 0x00, 0x00, 0x00, 0x00, 0x00, 0x00, 0x00, 0x00, 0x00, 
  0x00, 0x00, 0x00, 0x00, 0x00, 0x00, 0x00, 0x00, 0x00, 0x00, 0x00, 0x00, 
  0x00, 0x00, 0x00, 0x00, 0x00, 0x00, 0x00, 0x00, 0x00, 0x00, 0x00, 0x00, 
  0x00, 0x00, 0x00, 0x00, 0x00, 0x00, 0x00, 0x00, 0x00, 0x00, 0x00, 0x00, 
  0x00, 0x00, 0x00, 0x00, 0x00, 0x00, 0x00, 0x00, 0x00, 0x00, 0x00, 0x00, 
  0x00, 0x00, 0x00, 0x00, 0x00, 0x00, 0x00, 0x00, 0x00, 0x00, 0x00, 0x00, 
  0x00, 0x00, 0x00, 0x00, 0x00, 0x00, 0x00, 0x00, 0x00, 0x00, 0x00, 0x00, 
  0x00, 0x00, 0x00, 0x00, 0x00, 0x00, 0x00, 0x00, 0x00, 0x00, 0x00, 0x00, 
  0x00, 0x00, 0x00, 0x00, 0x00, 0x00, 0x00, 0x00, 0x00, 0x00, 0x00, 0x00, 
  0x00, 0x00, 0x00, 0x00, 0x00, 0x00, 0x00, 0x00, 0x00, 0x00, 0x00, 0x00, 
  0x00, 0x00, 0x00, 0x00, 0x00, 0x00, 0x00, 0x00, 0x00, 0x00, 0x00, 0x00, 
  0x00, 0x00, 0x00, 0x00, 0x00, 0x00, 0x00, 0x00, 0x00, 0x00, 0x00, 0x00, 
  0x00, 0x00, 0x00, 0x00, 0x00, 0x00, 0x00, 0x00, 0x00, 0x00, 0x00, 0x00, 
  0x00, 0x00, 0x00, 0x00, 0x00, 0x00, 0x00, 0x00, 0x00, 0x00, 0x00, 0x00, 
  0x00, 0x00, 0x00, 0x00, 0x00, 0x00, 0x00, 0x00, 0x00, 0x00, 0x00, 0x00, 
  0x00, 0x00, 0x00, 0x00, 0x00, 0x00, 0x00, 0x00, 0x00, 0x00, 0x00, 0x00, 
  0x00, 0x00, 0x00, 0x00, 0x00, 0x00, 0x00, 0x00, 0x00, 0x00, 0x00, 0x00, 
  0x00, 0x00, 0x00, 0x00, 0x00, 0x00, 0x00, 0x00, 0x00, 0x00, 0x00, 0x00, 
  0x00, 0x00, 0x00, 0x00, 0x00, 0x00, 0x00, 0x00, 0x00, 0x00, 0x00, 0x00, 
  0x00, 0x00, 0x00, 0x00, 0x00, 0x00, 0x00, 0x00, 0x00, 0x00, 0x00, 0x00, 
  0x00, 0x00, 0x00, 0x00, 0x00, 0x00, 0x00, 0x00, 0x00, 0x00, 0x00, 0x00, 
  0x00, 0x00, 0x00, 0x00, 0x00, 0x00, 0x00, 0x00, 0x00, 0x00, 0x00, 0x00, 
  0x00, 0x00, 0x00, 0x00, 0x00, 0x00, 0x00, 0x00, 0x00, 0x00, 0x00, 0x00, 
  0x00, 0x00, 0x00, 0x00, 0x00, 0x00, 0x00, 0x00, 0x00, 0x00, 0x00, 0x00, 
  0x00, 0x00, 0x00, 0x00, 0x00, 0x00, 0x00, 0x00, 0x00, 0x00, 0x00, 0x00, 
  0x00, 0x00, 0x00, 0x00, 0x40, 0x00, 0x00, 0x00, 0x84, 0x89, 0x1e, 0x38, 
  0x74, 0x34, 0x89, 0x37, 0x21, 0x84, 0x88, 0x37, 0x0c, 0x0c, 0x31, 0x38, 
  0x27, 0xc3, 0x83, 0x37, 0x47, 0x91, 0xaf, 0x38, 0x7e, 0x52, 0x8e, 0x37, 
  0x2a, 0xba, 0x8c, 0x37, 0xb2, 0x14, 0x86, 0x37, 0xb6, 0xda, 0x8e, 0x37, 
  0x0f, 0x5a, 0x3b, 0x38, 0xe9, 0x16, 0x31, 0x38, 0xfa, 0x06, 0x83, 0x37, 
  0x17, 0x3b, 0x1c, 0x38, 0x6c, 0x33, 0x21, 0x38, 0xc0, 0x9d, 0x1b, 0x38, 
  0x48, 0x5e, 0x23, 0x38, 0x63, 0x32, 0x29, 0x38, 0x74, 0xfb, 0x17, 0x38, 
  0x15, 0x1e, 0x23, 0x38, 0x6d, 0x8c, 0x87, 0x37, 0x4f, 0x3d, 0x05, 0x38, 
  0x66, 0xd1, 0x22, 0x38, 0xe0, 0xd9, 0x8e, 0x37, 0x47, 0x59, 0x26, 0x38, 
  0xe6, 0x6d, 0x19, 0x38, 0x1e, 0x1c, 0x96, 0x37, 0x13, 0xd0, 0x1f, 0x38, 
  0xda, 0x25, 0x3b, 0x38, 0xfe, 0x2d, 0x15, 0x38, 0xd0, 0x78, 0x1c, 0x38, 
  0xa7, 0x59, 0x1c, 0x38, 0x5c, 0x02, 0x1e, 0x38, 0x26, 0x25, 0x19, 0x38, 
  0xc9, 0x12, 0x10, 0x38, 0x90, 0xf3, 0x16, 0x38, 0x4e, 0x69, 0x2a, 0x38, 
  0xb5, 0x86, 0x8e, 0x37, 0xb0, 0x6b, 0x20, 0x38, 0x35, 0xb9, 0x38, 0x38, 
  0xfc, 0x52, 0x2c, 0x38, 0xaa, 0xb1, 0x70, 0x38, 0x21, 0x3a, 0x47, 0x38, 
  0x97, 0xfd, 0x17, 0x38, 0xf0, 0x0d, 0x4f, 0x38, 0x1f, 0x5a, 0x7c, 0x37, 
  0xc9, 0x4b, 0x8f, 0x37, 0x06, 0xa6, 0x87, 0x37, 0xb3, 0xee, 0x32, 0x38, 
  0x35, 0x25, 0x29, 0x38, 0xf4, 0x90, 0x94, 0x37, 0x5a, 0x4e, 0x45, 0x38, 
  0xb4, 0x23, 0x20, 0x38, 0x7c, 0xaa, 0x18, 0x38, 0x94, 0x4c, 0x21, 0x38, 
  0xf1, 0x61, 0x81, 0x37, 0x90, 0x0e, 0x25, 0x38, 0x03, 0xaa, 0x12, 0x38, 
  0x66, 0xef, 0x8f, 0x37, 0x2c, 0x75, 0x2c, 0x38, 0x6c, 0x86, 0x2b, 0x38, 
  0x85, 0x7e, 0x25, 0x38, 0xe4, 0xe3, 0x29, 0x38, 0x43, 0x9e, 0x2a, 0x38, 
  0x12, 0x00, 0x00, 0x00, 0x74, 0x66, 0x6c, 0x2e, 0x70, 0x73, 0x65, 0x75, 
  0x64, 0x6f, 0x5f, 0x71, 0x63, 0x6f, 0x6e, 0x73, 0x74, 0x32, 0x00, 0x00, 
  0x01, 0x00, 0x00, 0x00, 0x40, 0x00, 0x00, 0x00, 0x6e, 0xff, 0xff, 0xff, 
  0x00, 0x00, 0x00, 0x01, 0x14, 0x00, 0x00, 0x00, 0x60, 0x00, 0x00, 0x00, 
  0x03, 0x00, 0x00, 0x00, 0x00, 0x00, 0x00, 0x09, 0x6c, 0x00, 0x00, 0x00, 
  0xa4, 0xfe, 0xff, 0xff, 0x08, 0x00, 0x00, 0x00, 0x30, 0x00, 0x00, 0x00, 
  0x05, 0x00, 0x00, 0x00, 0x00, 0x00, 0x00, 0x00, 0x00, 0x00, 0x00, 0x00, 
  0x00, 0x00, 0x00, 0x00, 0x00, 0x00, 0x00, 0x00, 0x00, 0x00, 0x00, 0x00, 
  0x00, 0x00, 0x00, 0x00, 0x00, 0x00, 0x00, 0x00, 0x00, 0x00, 0x00, 0x00, 
  0x00, 0x00, 0x00, 0x00, 0x00, 0x00, 0x00, 0x00, 0x05, 0x00, 0x00, 0x00, 
  0xaa, 0xc5, 0xa1, 0x3b, 0x0a, 0x67, 0xa5, 0x3b, 0x33, 0x3c, 0x2c, 0x3c, 
  0x07, 0xcd, 0x48, 0x3b, 0x76, 0x5d, 0xe0, 0x3b, 0x12, 0x00, 0x00, 0x00, 
  0x74, 0x66, 0x6c, 0x2e, 0x70, 0x73, 0x65, 0x75, 0x64, 0x6f, 0x5f, 0x71, 
  0x63, 0x6f, 0x6e, 0x73, 0x74, 0x31, 0x00, 0x00, 0x02, 0x00, 0x00, 0x00, 
  0x05, 0x00, 0x00, 0x00, 0x40, 0x00, 0x00, 0x00, 0x00, 0x00, 0x16, 0x00, 
  0x1c, 0x00, 0x18, 0x00, 0x17, 0x00, 0x10, 0x00, 0x0c, 0x00, 0x08, 0x00, 
  0x00, 0x00, 0x00, 0x00, 0x00, 0x00, 0x07, 0x00, 0x16, 0x00, 0x00, 0x00, 
  0x00, 0x00, 0x00, 0x01, 0x14, 0x00, 0x00, 0x00, 0x60, 0x00, 0x00, 0x00, 
  0x02, 0x00, 0x00, 0x00, 0x00, 0x00, 0x00, 0x02, 0x6c, 0x00, 0x00, 0x00, 
  0x4c, 0xff, 0xff, 0xff, 0x08, 0x00, 0x00, 0x00, 0x30, 0x00, 0x00, 0x00, 
  0x05, 0x00, 0x00, 0x00, 0x00, 0x00, 0x00, 0x00, 0x00, 0x00, 0x00, 0x00, 
  0x00, 0x00, 0x00, 0x00, 0x00, 0x00, 0x00, 0x00, 0x00, 0x00, 0x00, 0x00, 
  0x00, 0x00, 0x00, 0x00, 0x00, 0x00, 0x00, 0x00, 0x00, 0x00, 0x00, 0x00, 
  0x00, 0x00, 0x00, 0x00, 0x00, 0x00, 0x00, 0x00, 0x05, 0x00, 0x00, 0x00, 
  0x32, 0x7b, 0xec, 0x39, 0xc5, 0xc9, 0xf1, 0x39, 0xb9, 0xc6, 0x7b, 0x3a, 
  0x5e, 0xc4, 0x92, 0x39, 0x87, 0xfd, 0x23, 0x3a, 0x11, 0x00, 0x00, 0x00, 
  0x74, 0x66, 0x6c, 0x2e, 0x70, 0x73, 0x65, 0x75, 0x64, 0x6f, 0x5f, 0x71, 
  0x63, 0x6f, 0x6e, 0x73, 0x74, 0x00, 0x00, 0x00, 0x01, 0x00, 0x00, 0x00, 
  0x05, 0x00, 0x00, 0x00, 0x00, 0x00, 0x16, 0x00, 0x20, 0x00, 0x1c, 0x00, 
  0x1b, 0x00, 0x14, 0x00, 0x10, 0x00, 0x0c, 0x00, 0x00, 0x00, 0x00, 0x00, 
  0x08, 0x00, 0x07, 0x00, 0x16, 0x00, 0x00, 0x00, 0x00, 0x00, 0x00, 0x01, 
  0x18, 0x00, 0x00, 0x00, 0x2c, 0x00, 0x00, 0x00, 0x48, 0x00, 0x00, 0x00, 
  0x01, 0x00, 0x00, 0x00, 0x00, 0x00, 0x00, 0x09, 0x64, 0x00, 0x00, 0x00, 
  0x02, 0x00, 0x00, 0x00, 0xff, 0xff, 0xff, 0xff, 0x04, 0x00, 0x00, 0x00, 
  0x0c, 0x00, 0x0c, 0x00, 0x00, 0x00, 0x00, 0x00, 0x08, 0x00, 0x04, 0x00, 
  0x0c, 0x00, 0x00, 0x00, 0x08, 0x00, 0x00, 0x00, 0x10, 0x00, 0x00, 0x00, 
  0x01, 0x00, 0x00, 0x00, 0xfe, 0xff, 0xff, 0xff, 0xff, 0xff, 0xff, 0xff, 
  0x01, 0x00, 0x00, 0x00, 0x8b, 0xbc, 0x63, 0x3c, 0x21, 0x00, 0x00, 0x00, 
  0x73, 0x65, 0x72, 0x76, 0x69, 0x6e, 0x67, 0x5f, 0x64, 0x65, 0x66, 0x61, 
  0x75, 0x6c, 0x74, 0x5f, 0x6b, 0x65, 0x72, 0x61, 0x73, 0x5f, 0x74, 0x65, 
  0x6e, 0x73, 0x6f, 0x72, 0x5f, 0x33, 0x32, 0x3a, 0x30, 0x00, 0x00, 0x00, 
  0x02, 0x00, 0x00, 0x00, 0x01, 0x00, 0x00, 0x00, 0x04, 0x00, 0x00, 0x00, 
  0x01, 0x00, 0x00, 0x00, 0x10, 0x00, 0x00, 0x00, 0x0c, 0x00, 0x10, 0x00, 
  0x0f, 0x00, 0x00, 0x00, 0x08, 0x00, 0x04, 0x00, 0x0c, 0x00, 0x00, 0x00, 
  0x09, 0x00, 0x00, 0x00, 0x04, 0x00, 0x00, 0x00, 0x00, 0x00, 0x00, 0x09, 
};
const int g_gas_model_len = 10536;
